[PAD]
[UNK]
[CLS]
[SEP]
[MASK]
!
"
#
$
%
&
'
(
)
*
+
,
-
.
/
0
1
2
3
4
5
6
7
8
9
:
;
<
=
>
?
@
A
B
C
D
E
F
G
H
I
J
K
L
M
N
O
P
Q
R
S
T
U
V
W
X
Y
Z
[
\
]
^
_
`
a
b
c
d
e
f
g
h
i
j
k
l
m
n
o
p
q
r
s
t
u
v
w
x
y
z
{
|
}
~
¡
¢
£
¥
¦
§
¨
©
ª
«
¬
®
¯
°
±
²
³
´
µ
¶
·
¸
¹
º
»
¼
½
¾
¿
À
Á
Â
Ã
Ä
Å
Æ
Ç
È
É
Ê
Ë
Ì
Í
Î
Ï
Ð
Ñ
Ó
Ô
Ö
×
Ø
Ú
Û
Ü
Þ
ß
à
á
â
ã
ä
å
æ
ç
è
é
ê
ë
ì
í
î
ï
ð
ñ
ò
ó
ô
õ
ö
÷
ø
ù
ú
û
ü
ý
þ
ÿ
Ā
ā
ă
ą
Ć
ć
Ĉ
ĉ
Ċ
ċ
Č
č
Đ
đ
Ē
ē
ĕ
Ė
ė
ę
ě
Ĝ
ĝ
ğ
ġ
Ĥ
ĥ
ħ
Ĩ
ĩ
Ī
ī
ĭ
İ
ı
Ĵ
ĵ
ĸ
ĺ
Ł
ł
ń
ň
ŋ
Ō
ō
ő
œ
ŕ
Ř
ř
Ś
ś
Ŝ
ŝ
Ş
ş
Š
š
Ţ
ţ
ť
Ũ
ũ
Ū
ū
ů
ű
Ŵ
ŵ
Ŷ
ŷ
ź
Ż
ż
Ž
ž
Ɛ
ƒ
ƛ
ƞ
Ɵ
ơ
Ʃ
ǀ
ǁ
ǂ
ǎ
ǒ
ǧ
ǵ
Ǻ
ș
Ȧ
ȩ
Ȯ
Ȳ
ȳ
ȷ
Ʌ
ɑ
ə
ɛ
ɣ
ɤ
ɳ
ɵ
ɷ
ɸ
ʃ
ʋ
ʎ
ʟ
ʹ
ʺ
ʻ
ʼ
˂
˃
ˆ
ˇ
ˈ
ˉ
ˊ
ː
˗
˘
˙
˚
˜
˝
˭
˿
̀
́
̂
̃
̄
̅
̆
̇
̈
̊
̋
̌
̑
̧
̰
̱
̲
̴
̵
̶
̷
̸
̿
͇
͌
΄
·
Ώ
Α
Β
Γ
Δ
Ε
Ζ
Η
Θ
Ι
Κ
Λ
Μ
Ν
Ξ
Ο
Π
Ρ
΢
Σ
Τ
Υ
Φ
Χ
Ψ
Ω
ά
έ
ή
α
β
γ
δ
ε
ζ
η
θ
ι
κ
λ
μ
ν
ξ
ο
π
ρ
ς
σ
τ
υ
φ
χ
ψ
ω
ό
ύ
ϑ
ϒ
ϕ
ϖ
Ϝ
ϝ
ϰ
ϱ
ϴ
ϵ
Ͽ
Є
І
А
Б
В
Г
Д
Е
И
К
Л
М
Н
О
П
Р
С
Т
У
Ф
Х
Ч
Ш
Э
Я
а
б
в
г
д
е
ж
з
и
й
к
л
м
н
о
п
р
с
т
у
ф
х
ц
ч
ш
щ
ъ
ы
ь
э
ю
я
є
і
ћ
Ѳ
ѵ
ӧ
Ө
׀
׳
ا
ب
ة
ت
د
ر
ز
س
ض
ط
ع
ف
ق
ك
ل
م
ن
ه
و
ي
Ḋ
Ḡ
ḡ
Ḣ
Ṁ
ṁ
Ṅ
ṅ
Ṙ
ṙ
Ṡ
Ṫ
Ṽ
ṽ
Ẇ
ẋ
ẏ
ẑ
Ẽ
ẽ
Ỹ
ỹ
ῡ
ῦ
‐
‑
‒
–
—
―
‖
‘
’
‚
“
”
„
†
‡
•
‥
…
‧
‰
′
″
‴
‵
‹
›
‾
⁁
⁄
⁎
⁗
⁰
₂
₃
₄
€
⃑
⃖
⃗
⃛
⃡
ℂ
℃
ℋ
ℍ
ℏ
ℐ
ℑ
ℒ
ℓ
ℕ
№
℘
ℙ
ℚ
ℛ
ℜ
ℝ
™
ℤ
℧
Å
ℬ
ℭ
ℰ
ℱ
ℳ
ℵ
ℶ
ℷ
ⅅ
ⅆ
ⅇ
ⅈ
⅓
⅔
Ⅰ
Ⅱ
Ⅲ
Ⅳ
Ⅴ
Ⅵ
←
↑
→
↓
↔
↕
↖
↗
↘
↙
↛
↝
↠
↣
↦
↪
↭
↷
↺
↻
↼
↽
↾
⇀
⇁
⇂
⇄
⇅
⇆
⇉
⇋
⇌
⇏
⇐
⇑
⇒
⇓
⇔
⇕
⇛
⇝
∀
∁
∂
∃
∄
∅
∆
∇
∈
∉
∊
∋
∎
∏
∐
∑
−
∓
∕
∖
∗
∘
∙
√
∝
∞
∠
∡
∢
∣
∥
∦
∧
∨
∩
∪
∫
∬
∭
∮
∯
∴
∵
∶
∷
∼
∽
≀
≁
≂
≃
≅
≈
≊
≌
≍
≐
≑
≒
≔
≕
≙
≜
≠
≡
≢
≤
≥
≦
≧
≪
≫
≰
≱
≲
≳
≶
≷
≺
≻
≼
≽
≾
≿
⊀
⊂
⊃
⊄
⊆
⊇
⊈
⊊
⊎
⊏
⊑
⊓
⊔
⊕
⊖
⊗
⊘
⊙
⊚
⊛
⊝
⊞
⊟
⊠
⊢
⊣
⊤
⊥
⊧
⊨
⊩
⊬
⊭
⊲
⊳
⊴
⊸
⊺
⊻
⋀
⋁
⋂
⋃
⋄
⋅
⋆
⋈
⋉
⋊
⋌
⋍
⋎
⋏
⋐
⋔
⋖
⋗
⋘
⋙
⋥
⋮
⋯
⋰
⋱
⌀
⌈
⌉
⌊
⌋
⌜
⌝
⌟
⌢
⌣
〈
〉
⎔
⎕
⏞
⏟
␣
①
②
③
④
⑤
⑥
⑦
⑧
⑨
⑩
─
│
┴
═
║
▒
▓
■
□
▪
▲
△
▴
▵
▶
▷
▹
►
▼
▽
▾
▿
◁
◂
◃
◆
◇
◊
○
●
◦
◯
◻
◼
★
☆
☐
♀
♂
♠
♢
♣
♦
♭
♮
♯
✓
✠
✣
➀
➁
➂
➔
⟂
⟦
⟧
⟨
⟩
⟪
⟫
⟵
⟶
⟷
⟸
⟹
⟺
⟼
⥀
⥂
⥄
⦀
⦵
⦶
⧧
⧫
⧸
⧹
⨀
⨁
⨂
⨆
⨉
⨍
⨿
⩽
⩾
⪅
⪆
⪡
⪢
⪯
⪰
⫪
⬜
⿢
⿤
⿥
⿫
⿲
⿳
⿼
⿿
、
。
〈
〉
《
》
〚
〛
엯
풪
픅
ﬀ
ﬁ
ﬂ
︀
︁
︵
︷
︸
％
（
）
＋
，
－
：
；
＜
＝
＞
～
𝐀
𝐁
𝐂
𝐃
𝐄
𝐅
𝐇
𝐌
𝐏
𝐐
𝐑
𝐒
𝐔
𝐕
𝐗
𝐘
𝐛
𝐞
𝐟
𝐢
𝐤
𝐦
𝐧
𝐩
𝐪
𝐫
𝐮
𝐯
𝐱
𝑿
𝒌
𝒒
𝒓
𝒙
𝒜
𝒫
𝒮
𝒯
𝓁
𝔼
𝚪
𝜀
𝜃
𝜖
𝜗
𝜸
𝝁
𝟎
𝟏
##8
##5
##P
##n
##4
##s
##i
##φ
##k
##2
##z
##A
##e
##−
##x
##α
##a
##1
##E
##p
##9
##±
##ϕ
##θ
##S
##γ
##F
##b
##o
##d
##Y
##3
##C
##R
##π
##∼
##T
##6
##0
##g
##u
##l
##t
##≈
##r
##c
##M
##D
##̇
##σ
##q
##Δ
##y
##f
##≠
##m
##w
##h
##v
##ρ
##∇
##⋅
##B
##Q
##ℓ
##N
##ˆ
##κ
##I
##⩽
##ϵ
##∕
##K
##j
##ω
##⊂
##Γ
##∪
##˙
##W
##G
##X
##̃
##ξ
##7
##O
##L
##đ
##J
##⋯
##̂
##×
##H
##β
##τ
##Ω
##∑
##μ
##│
##⊆
##∂
##∗
##⩾
##≲
##→
##∞
##χ
##⊤
##∫
##∈
##≤
##ϑ
##ν
##̲
##¯
##ε
##Ψ
##V
##ö
##ä
##∥
##▿
##Λ
##̄
##⌣
##♯
##⊓
##η
##≅
##⪡
##λ
##ζ
##Φ
##⇒
##U
##≡
##∙
##°
##⨁
##⊥
##δ
##̈
##▹
##⊗
##∝
##≥
##Z
##®
##⪢
##ɛ
##˜
##Σ
##≔
##⇔
##⃗
##Θ
##∣
##≫
##ⅆ
##♢
##ς
##Ŝ
##υ
##∧
##∘
##↦
##↔
##∬
##ϖ
##Å
##µ
##ψ
##√
##⿿
##ħ
##≕
##≃
##Π
##∀
##∏
##↑
##Ξ
##∩
##ϱ
##™
##∖
##⊨
##□
##≊
##⧹
##ℏ
##Ⅱ
##∆
##∓
##̊
##̌
##⊕
##℘
##í
##÷
##Э
##≪
##⇌
##é
##⇄
##★
##ˇ
##⇀
##ê
##ı
##́
##≐
##è
##⋆
##↓
##€
##¬
##↭
##≜
##⋃
##ϒ
##⋱
##⋮
##л
##ы
##⪰
##⌢
##б
##ь
##я
##ℛ
##ι
##в
##и
##й
##∶
##´
##Ε
##⊈
##△
##˭
##á
##¨
##ℝ
##ℜ
##⪯
##Μ
##𝐀
##ï
##ϝ
##ü
##⇆
##≳
##⟺
##∴
##∨
##⊙
##ó
##ū
##∊
##à
##⋁
##ч
##∉
##д
##н
##←
##ú
##⊢
##∮
##˚
##ź
##ś
##∅
##м
##е
##▽
##а
##г
##₃
##æ
##̆
##⊃
##̅
##⟶
##ë
##○
##Υ
##▵
##ş
##⊇
##©
##ℵ
##Ċ
##ñ
##û
##т
##ц
##щ
##ÿ
##ℑ
##◁
##ɷ
##М
##ě
##ž
##풪
##⃑
##𝜃
##𝐫
##ю
##ă
##⊖
##̱
##≻
##≽
##˘
##⧧
##∁
##£
##⦀
##ç
##ø
##ů
##ш
##ī
##ń
##р
##о
##п
##ğ
##☆
##Ø
##⊠
##◇
##Н
##∃
##⇝
##⊺
##⪆
##ß
##Ν
##ň
##з
##⧸
##ℂ
##⑥
##⟹
##с
##к
##х
##⟼
##ʼ
##Р
##Ο
##⇑
##⇓
##С
##⋔
##⎔
##≺
##⟷
##⨂
##ⅇ
##̸
##̷
##⋀
##Ι
##⬜
##ﬁ
##š
##𝜀
##∠
##≦
##О
##⊳
##̀
##⃡
##č
##э
##ʹ
##Đ
##Ö
##℃
##≾
##ð
##＝
##Х
##═
##𝓁
##≒
##◃
##ę
##♮
##②
##ȷ
##ĭ
##Т
##⋥
##ˈ
##Ĥ
##â
##①
##½
##∭
##ã
##ф
##₂
##Ä
##ș
##︀
##⟂
##◦
##⥄
##⊘
##⋉
##≷
##↣
##ř
##ý
##⋈
##↘
##ʺ
##⋂
##Ð
##ο
##ą
##å
##▾
##ά
##̵
##ℕ
##⨿
##≑
##𝐏
##◻
##ℬ
##엯
##У
##Ʃ
##²
##ж
##ć
##ǁ
##¥
##ϰ
##∋
##ﬂ
##∷
##Г
##≰
##⪅
##⿤
##ô
##↽
##º
##↗
##А
##В
##î
##⊊
##⿲
##̿
##˗
##⊔
##𝜖
##𝒓
##↕
##─
##Ā
##⊝
##ъ
##⇋
##↾
##ł
##⃛
##⊞
##ŕ
##œ
##ō
##Ĉ
##▓
##ā
##⏟
##س
##ت
##د
##ا
##م
##Η
##Á
##⊄
##ċ
##◊
##↪
##⇐
##▶
##̑
##▒
##Í
##К
##⟵
##ǵ
##¼
##³
##ϴ
##Ͽ
##Α
##͇
##ћ
##≧
##П
##⊬
##⑤
##Τ
##ℒ
##⊏
##𝐁
##ℐ
##̰
##Ç
##＞
##⋄
##ǀ
##ì
##⊟
##∐
##ª
##¢
##Ü
##Ł
##έ
##ŷ
##ɵ
##ⅈ
##̴
##ĝ
##≁
##¦
##⨍
##⊑
##Ē
##É
##Ū
##≼
##Ĝ
##õ
##ũ
##ﬀ
##ℳ
##𝒙
##Ⅰ
##ù
##ė
##⊩
##ƒ
##⁰
##♦
##⃖
##♭
##～
##⿥
##Ṽ
##𝜗
##ƛ
##↼
##ŋ
##∵
##Β
##⊧
##ò
##ό
##⦵
##Ζ
##⊲
##⋏
##⋊
##І
##𝐑
##İ
##Ф
##ẋ
##∽
##≙
##ĥ
##Ѳ
##ż
##Κ
##ˉ
##⫪
##＋
##ℱ
##⁄
##ل
##ق
##ع
##ة
##≶
##ő
##≿
##⎕
##ȩ
##Â
##ℙ
##Š
##Ũ
##▷
##⇅
##þ
##𝐘
##③
##¸
##⥂
##⌟
##ƞ
##𝒯
##⇉
##ē
##˝
##Ì
##Ô
##ύ
##ӧ
##΄
##♀
##⥀
##⑦
##Ã
##⑩
##ℤ
##Ө
##║
##ℋ
##Д
##Е
##И
##Ê
##͌
##Ρ
##у
##ĉ
##↙
##Ɛ
##픅
##⊀
##↠
##↝
##Ĩ
##⏞
##ℍ
##𝐕
##ţ
##●
##Ė
##⊛
##∢
##ˊ
##Ŷ
##Ř
##Ţ
##𝐔
##ĺ
##Ī
##∦
##∯
##¾
##⊴
##𝐦
##𝐇
##𝐞
##𝐟
##𝐂
##Χ
##𝐃
##𝐒
##⌀
##◯
##Ĵ
##ب
##ي
##𝟏
##⋍
##ẑ
##⋘
##ĩ
##⿫
##ή
##Ч
##𝔼
##∎
##₄
##⋰
##Î
##Ï
##⇁
##⌜
##︁
##ℰ
##␣
##℧
##𝐩
##ŵ
##⊻
##Ϝ
##Ẽ
##ǎ
##⊎
##≌
##𝐪
##𝒜
##↛
##✠
##і
##✓
##ǒ
##Č
##Ć
##⅓
##ط
##⨀
##ℚ
##̶
##ر
##ʋ
##➔
##④
##⅔
##▴
##≍
##Ⅲ
##▪
##𝒌
##⌝
##ɑ
##≢
##┴
##Ñ
##Ó
##𝐮
##⨆
##̧
##Ō
##ز
##ː
##ĵ
##■
##⋎
##𝐅
##Ȳ
##¹
##˿
##≀
##ɣ
##⊭
##ť
##ŝ
##Я
##ʻ
##►
##𝐯
##ʎ
##Ǻ
##Ë
##⿢
##Û
##⋖
##⋗
##∄
##ǧ
##↻
##↺
##Ṁ
##ṙ
##＜
##𝜸
##ỹ
##Þ
##Ʌ
##𝐧
##⇛
##⟸
##𝐱
##♣
##⋐
##⧫
##ℶ
##Ⅵ
##ű
##⊣
##є
##⊚
##Ḡ
##𝐢
##Б
##♂
##ȳ
##Ŵ
##☐
##ℷ
##⇂
##⋙
##˂
##È
##ɸ
##𝒒
##Є
##Ɵ
##≂
##˃
##𝐌
##̋
##ℭ
##↖
##΢
##⊸
##≱
##Л
##Ш
##Ḋ
##Ṡ
##À
##𝟎
##ġ
##↷
##⇕
##Ś
##ⅅ
##✣
##ن
##◂
##Ž
##∡
##Ȯ
##⋌
##ĸ
##𝐤
##𝐗
##𝐄
##◆
##𝐐
##ǂ
##𝒮
##⑧
##Ⅳ
##ẏ
##⿳
##ĕ
##ѵ
##ʃ
##ə
##⇏
##Ώ
##𝒫
##و
##ɤ
##𝚪
##Ⅴ
##⿼
##Ṙ
##Æ
##Ú
##▲
##Ṅ
##⦶
##𝑿
##ɳ
##ف
##Ḣ
##⑨
##ḡ
##ẽ
##▼
##⨉
##𝐛
##ك
##𝝁
##ṅ
##ه
##ʟ
##ض
##Ş
##ṁ
##♠
##Ỹ
##Å
##Ż
##ṽ
##Ẇ
##ῦ
##ơ
##Ȧ
##ῡ
##Ṫ
##◼
##➂
##➁
##he
the
##on
##ti
##er
##ed
##es
##en
##in
##or
##al
of
##at
##nd
##tion
in
##re
##an
##ro
##it
and
##ar
##as
##ic
##ec
##ing
to
##ent
##is
##el
##ation
##ol
##ac
##et
th
##mp
##ur
##le
is
##ig
##ul
##tr
for
con
The
##ow
##ly
co
##id
##ith
##st
with
##il
##uc
re
##im
##ve
##ou
pro
be
##ot
as
##os
##ter
##ce
on
ex
##tic
an
at
##ff
##ure
##od
##um
that
st
was
by
al
##si
##ity
are
##ate
##ts
##am
##om
##ated
##ain
##ab
res
##ver
##rom
##ess
##ect
de
##tin
##ge
##se
di
comp
##ere
##ad
##ir
sh
##her
##qu
##ut
ac
##pp
##ment
were
sp
or
##ting
from
##ay
##ib
wh
##per
ch
##iz
us
##oc
su
##res
Fig
str
en
##igh
tr
dis
##op
##for
##ap
##ase
##ich
##tiv
##th
##00
##ical
##lu
##ine
In
##yst
##ant
##if
##ition
##tive
inc
##ell
##sion
##em
##ted
##ations
ob
##ers
##ence
##us
par
which
can
show
el
##ag
this
##able
mod
##and
diff
##ater
met
##ely
##all
ad
##ace
sol
##ri
##ution
##ous
##ies
##duc
app
##og
se
inter
ph
##ial
##ectr
##ave
##action
per
##un
##ak
##ore
we
##ding
##les
##tain
##ud
##ved
##low
##form
te
##erat
##ance
eff
##rou
##ue
whe
ab
##ther
##act
resul
##amp
##yl
Th
ind
int
not
pl
pre
##ign
temp
val
ne
tran
##ch
sur
me
##ound
differ
##etw
##ide
##uct
cons
##tial
##reas
have
temperat
##aly
imp
##age
pr
##ents
form
10
##ons
rel
##eter
le
##ates
##face
##ens
exp
##dition
##vel
##een
un
##so
##erg
##etween
using
##end
used
between
##ied
rep
meth
##ip
##ong
##yd
##ach
stud
##ite
##enc
has
##ally
##ction
tw
it
high
##ystem
This
low
tim
temperature
resp
pres
##cess
also
than
model
dep
been
##vi
##ties
conc
sub
##ary
##ree
##ific
##ight
samp
trans
##ating
##gh
cont
sc
system
##iv
##uld
##ort
struct
two
surface
##ari
##ility
##ser
pol
##ond
##uch
cor
##sis
energ
##ures
analy
##ection
des
car
##ep
##ill
meas
cr
ev
##ati
##orp
##ectro
##ange
##eld
##est
cell
##tively
##ech
cal
obser
##ular
dec
##entr
##ble
##yn
bas
qu
rec
he
##der
gr
##hem
results
produc
##our
##tim
##ected
##ass
obtain
mol
##ydro
##te
##ield
energy
##ym
all
exper
char
und
mo
##yp
time
sign
##ose
##ard
##gen
electr
different
##ative
method
sim
##ne
ox
these
process
solution
##etr
red
##tical
##ix
gen
##trib
increas
##ors
##ized
equ
am
##ves
12
dat
pos
##ues
reg
experim
partic
acc
calc
ass
##oth
spec
##−1
shown
##fer
Al
##unction
##ared
##ined
min
##tivity
##ms
cl
##ici
##ang
##ist
##ane
concentr
##ion
##ack
hydro
under
mic
°C
cur
##ever
water
other
vari
##ork
data
20
##ub
more
##O2
##ments
one
##ene
##ization
##aterial
nan
where
##ential
reaction
fil
##out
##fter
et
electro
over
num
##ium
col
observed
into
obtained
##ax
##rop
com
material
perform
##ame
hig
function
##lic
ag
op
lar
##ber
##ile
such
##ros
For
calcul
##uring
reduc
fr
##eng
##olog
##hed
##owever
##rease
fol
po
It
grou
condition
##ast
no
sm
##hen
values
##ize
both
li
##ectively
##ome
but
present
##ear
##lex
phase
cat
##de
##au
##ability
gener
due
based
only
15
##mal
lay
out
##ox
##acter
typ
their
##oun
ar
appro
##ensity
its
##fore
indic
deter
##yc
##gr
##row
ver
structure
spectr
##ail
As
order
study
11
higher
##ider
##lo
##ould
##als
##ia
follow
vol
##ency
up
each
##cc
##ength
13
determ
##one
molec
param
pe
det
##anc
well
respectively
##atter
bi
rate
carb
##adi
im
bec
##pl
##ll
##str
##irst
flu
small
there
when
experiment
proper
pot
rem
Table
may
cryst
value
mag
##av
group
found
##ded
##ects
nm
samples
analysis
prop
peak
ther
##orption
##ph
##tribution
signific
##rough
es
##orted
##hemical
However
cm
consider
We
##ilar
effect
so
dire
def
##ensi
##ct
character
mix
non
##urther
during
flow
##par
shows
after
loc
level
##ured
##atic
fact
measure
ter
electron
##ie
significant
field
complex
number
same
first
19
concentration
##ough
line
conditions
##ness
contro
200
fe
##osed
##ause
##osition
work
addition
##ently
##2O
##cr
lo
fin
case
cap
##velop
state
through
100
abs
em
acid
##resp
potential
range
inf
##br
sel
##echan
sample
poin
##ick
atom
increase
size
mm
man
##the
##ual
pow
##ulation
properties
##ective
##tit
##ole
could
giv
##tig
corresp
develop
prov
##let
rati
layer
##ination
##formation
use
syn
three
dr
mechan
##rr
##tif
supp
lower
press
set
##Cl
##ited
then
inclu
##echn
CH
depend
14
mon
##vious
##ory
will
main
occ
conf
similar
cells
Co
##ust
most
phot
##vestig
grow
carbon
25
##aph
##eters
##own
investig
##hib
sl
tre
##ove
##crib
curr
Si
gas
##ture
##sible
mat
##are
reported
##ides
##ension
our
Eq
30
##ha
##gan
contain
interaction
exc
techn
##ys
band
large
some
very
##ays
##onding
conduc
density
##ural
16
fre
disc
##ites
##lement
max
##tal
##uted
lim
const
formation
##que
measured
while
##its
These
ion
##ann
1H
##imum
cyc
compared
##ex
compound
##ission
ref
about
There
polym
##econd
corre
##10
ini
##ges
sing
pressure
describ
pa
##over
##ffici
##den
##ock
##istic
effici
##ities
calculated
import
##ord
##ob
dim
distribution
To
synthe
##ases
##ood
parameters
##ines
sug
##cop
##amic
ratio
##ount
##alyst
50
experimental
Fe
requ
frequ
mean
##ise
compar
mem
beha
##ind
##ke
lead
because
transi
dem
##ention
occur
##netic
current
repres
Cu
##ains
behavi
given
materials
ads
ext
##ically
above
area
performed
metal
load
Ti
yield
pred
within
applic
fl
##ince
##lear
prec
mul
##cep
result
previous
##ath
##ilic
Hz
##ages
she
##ules
gl
aver
oper
chang
estim
##ross
single
second
##ism
decreas
##oci
##ost
increased
strong
stress
thick
particles
extr
further
##round
spectra
total
optim
studies
##ume
der
bond
II
catalyst
comm
ser
##ark
oxid
An
##lied
##ger
heat
step
comb
kn
##ins
##zed
long
do
br
see
region
solid
##ified
ins
sti
coll
gre
##yr
mass
##EM
##eth
bound
##olution
type
##up
presence
tak
##ult
chemical
organ
those
should
carri
##ade
##ores
##ording
systems
substr
constant
iden
thermal
##ants
##ression
transfer
##onstr
power
##ov
impro
18
determined
dist
##orph
##old
control
compon
important
corresponding
##til
bl
transition
design
##ale
prep
##lor
nor
##ric
##etry
##ology
ca
new
##xim
point
##ynamic
effects
##ences
aff
they
activity
##ice
initial
hydrogen
dom
med
separ
inv
##ogr
##get
##tern
following
prob
##ug
##MR
film
17
would
micro
tes
##ired
performance
##ational
##ibr
##ately
##astic
##NA
measurements
growth
showed
induc
increasing
applied
predic
polymer
##ward
change
##50
##orb
bu
pH
av
vis
prote
pur
stand
ang
##omp
##med
si
less
##ire
##ced
linear
free
nit
fu
##etric
respon
bel
experiments
oxy
length
##ump
mL
##roduc
##ress
##12
solv
species
maximum
##ient
##other
micros
##aw
ro
Ni
##ive
##sequ
specific
radi
average
##effici
Na
approxim
##quid
prepared
described
##ature
treat
##iod
membr
allow
##sed
sever
##ft
##ful
##O3
##O4
activ
prot
conver
liquid
section
##hes
coeffici
NMR
air
films
Re
oxygen
Therefore
structures
groups
multi
##vir
##atively
24
##sive
##alu
if
frequency
considered
neg
examp
influ
direct
reduction
##ator
techni
ge
approach
##ink
demonstr
super
proble
##anol
##viron
mg
local
near
magnetic
emission
enh
sour
sugges
proposed
possible
increases
any
crystall
ste
characteristic
evalu
emp
volume
simp
##attern
phen
##rix
correl
40
Zn
##ological
##ector
along
dimension
##aces
diam
##ute
capac
methods
associ
##onic
Figure
test
pattern
without
end
direction
presented
matrix
diffu
period
compounds
##els
position
ions
exhib
charge
light
dev
molecules
##ually
changes
bin
##oss
thickness
environ
related
reac
standard
amount
##ten
particle
##itud
##osph
##ulf
##ained
difference
mixture
silic
##ling
##eloc
anti
atoms
At
##though
various
subs
molecular
much
Li
identif
paper
behavior
displ
CO
##upl
clear
larger
##ible
coupl
quan
##red
##irc
##ymm
temperatures
term
μm
22
On
models
content
##artic
containing
##ake
##itation
constr
##inal
represent
dri
##egr
simul
expl
ach
##ces
need
efficiency
Thus
good
absorption
##ier
cross
electrode
studied
##oid
composition
##ma
##ule
achie
several
##eed
thus
part
##ances
shif
##ions
shap
##MS
nanop
concentrations
##olved
relative
treatment
veloc
##urn
cm−1
uni
fraction
cent
##tice
##ograph
example
volt
##az
reduced
contr
inst
contin
H2
refer
Ag
substrate
##ably
prof
decrease
##app
##ality
times
strain
significantly
even
##des
intensity
resist
##uration
After
investigated
##ving
lig
##cept
formed
ax
##itive
rele
diss
production
60
##aj
##put
carried
adsorption
factor
eth
##ification
like
particular
CD
##tions
magn
spin
nuc
environment
##ian
##led
wa
##ison
seen
organic
polar
states
##11
four
developed
response
cost
strength
resid
known
sum
defined
##reg
around
##ears
##pper
##cer
sensi
signal
product
associated
added
resulting
equation
surf
oxidation
aut
lit
##less
discus
##ven
crystal
##tributed
loss
integr
ligand
Ch
effective
top
##ish
dynamic
had
##atis
spectrum
proced
ele
23
solutions
##ided
##ching
29
##ydr
expected
ful
normal
##cence
levels
##lust
peaks
refl
##copy
compos
eV
##enz
including
sites
##to
caus
Further
since
##ets
many
##anes
coord
##ying
dop
mode
path
##bility
28
##ode
star
mechanism
##truct
nanopartic
por
##Hz
21
CO2
hand
therm
general
processes
being
##ron
detail
##ished
accur
##inc
scale
consist
transp
complet
diffusion
room
##ty
information
stability
##ived
parameter
##vant
membrane
tar
below
##NT
wid
controll
wave
##ethyl
est
velocity
orig
cataly
glass
geom
Sc
phosph
interface
active
Pt
avail
More
real
##ning
confir
All
introduc
according
##gor
made
PE
##SA
back
ear
PC
comparison
clust
reve
induced
##urb
##con
##electr
##ason
poly
cer
sens
##umn
err
##af
##sp
##etwork
##val
##omer
resear
terms
beam
del
fit
##ased
fib
before
does
interactions
##etter
acet
##itude
via
##try
MS
ret
##oph
spectro
00
##Ps
source
##ither
2H
##vers
observ
##ables
alk
##OH
continu
network
complexes
products
##ogen
circ
prom
allo
##CH
influence
problem
optical
##pm
##apor
cases
las
ray
thin
plot
##rogen
##aled
chann
oxide
##here
numer
protein
angle
cool
suc
resistance
column
synthesis
inhib
here
When
bar
applications
diameter
bul
prim
off
fluid
drop
disper
Au
##20
smaller
components
##osp
binding
amp
sequ
ed
St
##ices
distance
side
pul
reactions
layers
react
##inated
lat
plane
35
rot
functional
coefficient
again
Ar
unit
##ner
hum
structural
##PS
mmol
sal
improve
##iss
80
boundary
##hip
depos
force
stre
expression
Mn
site
emplo
solvent
##abil
fer
199
##ew
stable
therefore
kine
relatively
target
##ogene
##line
hy
provide
coun
##utr
element
capacity
##me
voltage
##ially
##ings
##ajor
sulf
however
diffr
required
phys
##ication
27
plas
vac
better
nanoparticles
26
##erc
bulk
conv
contact
300
space
slight
rates
equil
electric
crack
available
##ily
##xt
Me
Ga
##Cs
transport
eas
TiO2
##umin
##ending
agree
weight
Mg
assum
development
##of
correspond
##arm
##ressed
wall
##ritical
nucle
##ather
positive
##heme
substit
produced
major
##ffer
##aling
##cos
sw
chlor
##gorith
morph
##itor
procedure
mes
calculations
att
intr
##anced
pure
deg
relations
31
##omes
imm
rad
##ening
conclu
ke
dependent
##sc
coating
##medi
##ses
short
previously
highly
##ady
chrom
##cent
##ulated
contribution
33
bro
32
characteristics
##art
##ero
orient
##ists
90
tub
either
factors
close
laser
oil
summ
config
evid
negative
##co
hom
down
role
##ising
inj
indicates
##sem
Ca
fluores
limit
series
fac
deriv
##2O3
specim
##ended
den
##ibri
agg
algorith
exch
kinetic
symm
stor
points
weak
##ank
deposition
lab
##bit
exam
electronic
OH
still
##pec
##ised
sem
buil
measurement
45
shape
technique
PA
surfaces
NH
Comp
taken
curves
curve
simulation
whereas
Con
underst
conductivity
##ety
##onal
37
component
means
lattice
act
follows
estimated
nec
Cr
spectros
conn
flux
methyl
Moreover
ul
differences
##most
core
##tives
toward
irr
common
##orded
IR
##ibrium
##gest
##13
With
contrast
##electric
UV
##grad
70
sit
correlation
##ivid
##MA
##ept
foc
generated
nitrogen
wind
##ote
##arb
link
consistent
##queous
scatter
electroc
Since
mechanical
approximately
demonstrated
##ans
filter
elements
##more
##char
class
##atures
vibr
##lished
critical
##verse
synthesi
500
cover
nat
##assi
speed
ampl
coupling
situ
determine
derived
##yt
##rip
##ision
followed
##epend
ml
agreement
aqueous
##aced
From
research
##erature
adj
Although
decreases
##omb
individ
hydrox
34
reason
decreased
##hene
##ously
depth
##yed
wt
application
##Cl3
Mo
dou
grain
400
##ining
DNA
them
##RD
lif
mainly
block
reference
sat
ppm
way
equilibrium
##SI
Furthermore
fuel
mark
Cl
Bi
##atory
Br
modified
##sequently
precip
diffraction
##aps
zero
medium
36
fix
degrad
75
##tically
variation
MHz
tetr
##abric
heating
##bal
99
simple
##acted
ground
##acy
##ope
conversion
detection
functions
hel
resolution
independ
##umption
images
relationship
05
dependence
mom
pyr
##ires
adsorb
centr
few
electroly
##otrop
##zym
If
dimensional
##aining
il
indicated
intern
catalysts
respect
theore
phases
##ateg
theory
##amm
Section
additional
equiv
focus
types
arr
shear
indicate
##ott
hal
discussed
util
##ged
reson
transm
##resh
irradi
impact
attributed
mel
achieved
molecule
fabric
hard
features
must
final
wavel
treated
tun
##och
multip
heter
CH2
##ques
##izes
##−2
indicating
##inally
soil
axis
directly
chain
pair
leads
broad
separation
##ok
basis
plate
center
selected
Su
necess
##izing
equations
literature
progr
neutr
##II
MP
##15
obj
typical
recorded
error
might
illu
composite
almost
Pd
ep
regions
atm
illustr
rap
Ph
assess
Figs
diag
cre
##aving
image
gel
##iver
##kely
stage
##crip
cycle
greater
Acc
partial
did
invol
##isms
hex
ring
slightly
shift
##pol
mixed
quality
##ino
simulations
remov
##inate
##encies
##semb
pop
##ectrom
best
numerical
clearly
##TA
occurs
provided
##erm
account
##hest
natural
##ayer
soft
synthesized
rapid
##orts
quantit
hydr
##ton
##SC
loading
mM
equal
slow
base
##ectivity
##14
anne
tests
minim
48
generation
mak
uniform
analyzed
##ortion
identified
##brid
##omen
pore
##esting
techniques
enzym
areas
least
understand
aggreg
rang
##acement
feed
limited
##ols
##lying
fail
CH3
biom
overall
electrochemical
activation
enhance
wavelength
Sim
domain
add
among
channel
III
Wh
##orpor
##isting
evolution
upon
Un
estab
physical
full
plasma
prac
benz
highest
##iment
catalytic
Ex
nanoc
recover
##land
rather
##PA
Here
##inant
require
exchange
##uter
##inity
##li
width
nature
indus
##andom
algorithm
caused
isol
##oin
employed
atmosp
patterns
fixed
diffic
subj
Ad
run
collected
decomp
gap
PL
##entional
life
powder
##antum
years
characterized
support
energies
solar
##not
strateg
deformation
devices
frame
fluorescence
success
##22
internal
##way
valid
device
self
alumin
silica
spectroscopy
detected
cle
controlled
##und
bre
tested
##aries
crystals
By
Then
relax
##ography
XRD
##ij
##ody
MA
##active
random
assemb
bands
construc
According
ultr
theoretical
devi
likely
assumed
##bers
give
graph
H2O
##ogeneous
##ES
drug
38
lines
degradation
##olec
enhanced
degree
##ones
stirr
intermedi
##60
##°C
dam
##30
PV
zone
fa
##ern
altern
scattering
##anning
##aphene
##alent
##OS
prepar
##fact
minimum
located
Tr
##allel
proj
nanos
O2
independent
excitation
provides
against
##iles
conducted
appear
fract
##CA
quantum
##ways
##atial
comput
##lig
##alled
##ryst
sed
One
efficient
radiation
evaluated
becomes
exist
vary
days
cannot
##LC
mac
##iew
possi
##ecting
deposited
##rete
##acts
They
trend
edge
incorpor
individual
##mon
assign
variables
human
squ
fill
electrons
later
index
bott
phenomen
steel
photoc
95
eng
electrical
##ior
SA
Cd
modes
gradi
000
conventional
bonds
elastic
spatial
graphene
CA
01
Finally
moment
shell
enc
hybrid
post
##ators
cooling
input
morphology
monitor
##itable
advant
##oxy
although
##BS
cluster
PS
##pre
removal
##ks
##urs
##rior
improved
##ensities
##tle
PD
log
reduce
##agnetic
##ams
##certain
primary
sin
##sions
##ceed
wide
strongly
electrodes
55
chem
transform
profile
statis
##pecially
vacu
orbit
##CP
leading
stabil
parallel
dynamics
##iter
great
especially
doped
glo
##tiz
ZnO
pack
photo
ethanol
##isted
coefficients
Res
necessary
gu
interf
##hydro
SEM
configuration
barri
magnitude
##aging
combination
buffer
another
##eration
difficult
3H
maintain
dischar
how
hol
geometry
expressed
##entioned
gly
dried
##allic
##omic
view
Am
Supp
wor
recent
know
##Si
Ref
##40
confirmed
cut
sensitivity
##rosion
Pro
Ind
fo
evapor
appar
extern
##sing
##odium
find
atomic
output
interest
double
accuracy
##Cl2
##16
13C
##pr
42
##ropri
##PC
hydroph
lip
##tor
sil
39
yields
##18
represents
produce
kg
dil
##atives
methanol
suggested
dy
modul
##incip
turn
##alog
far
##ae
optimal
generally
behaviour
complete
open
copper
often
##erv
##DS
##epti
##osure
multiple
##FT
Se
alloy
##obic
##pped
Sn
NO
units
ve
operation
reactor
certain
suffici
chromat
susp
predicted
##osen
##ze
##ounts
revealed
successful
##ometer
left
##iting
day
extraction
10−
suggests
uncertain
ratios
Our
##ler
vector
usually
seem
##CC
##ots
upper
introduced
calculation
continuous
##ont
precurs
electrolyte
##oxide
external
princip
suggest
subst
environmental
CDCl3
##enti
proteins
##ring
C2
Similar
ide
iron
substrates
##iding
exhibit
ability
appropri
radical
right
##any
##As
rough
##PE
release
gene
DM
##tructure
150
65
five
turb
##ologies
impl
steps
tube
absorb
combined
allows
spectral
##tered
##ument
inside
signals
suitable
waste
analyses
##ime
perme
investigate
##gether
together
FT
height
auth
##ware
implement
chosen
seg
vers
across
ess
onto
##amine
depends
spectrom
towards
##work
ethyl
building
##Fe
bottom
mechanisms
pub
storage
##CO
##ird
remo
repl
corresponds
##aff
plant
##omm
finding
##hedr
##ET
TEM
fav
##olecular
##cal
−1
43
crystalline
plastic
irradiation
He
##uts
prefer
fields
initi
sequence
##omers
half
##wise
##GA
problems
make
included
until
break
ionic
##IS
ligands
repe
prior
##iction
02
easily
Eu
##IR
##ging
44
##ense
pass
noted
##scill
PM
variable
display
gives
tiss
##aster
ris
grid
proton
##odes
##Al
Rec
ESI
finite
specimens
HP
vacuum
cho
47
essential
place
include
##copic
equivalent
commerc
##ead
proportion
preparation
approac
analytical
involved
having
cath
nitr
able
percent
##lementary
Scheme
oscill
silicon
##ef
##assif
displacement
key
Ce
##oxyl
go
mar
removed
contrib
Tw
##Ds
engine
3D
whole
##istry
##isation
motion
profiles
dissolved
appropriate
absence
now
##NTs
clusters
CF
intermediate
orientation
##CM
recently
detailed
##view
examined
hor
##DA
probe
pump
##aged
resulted
don
opp
##sequent
##enced
operating
frag
fully
tit
lith
fast
##dr
dry
become
cycles
longer
latter
relaxation
satis
PP
coated
Pb
coupled
calibr
fluor
formul
polarization
che
Ru
##loc
processing
tend
decomposition
porous
SiO2
avoid
polymers
symmetry
mentioned
incub
Ram
HR
##elling
propag
useful
##×10
purp
85
41
gradient
damage
pulse
attr
hyp
El
evidence
called
##CS
N2
##MO
53
1000
##ectors
bonding
bio
##tering
appears
La
sensitive
explained
sensor
sodium
observations
estimate
1−
2D
tri
adop
##ledge
membranes
##ultane
##uture
transmission
dispersion
##icity
bene
grad
##idine
##80
amino
##ensive
conj
mill
injection
probability
semic
52
noise
##abol
##CN
spher
##romatic
consumption
ster
stret
original
approaches
though
demand
dip
While
mut
visible
##tures
secondary
sources
flex
constants
sk
##hydr
##utes
vertical
##MP
reach
framework
##ina
feature
mixing
analog
En
clos
observation
gluc
accum
##ders
placed
microscopy
remains
Zr
##linear
##lood
Sh
arg
Hence
##rup
##ales
##ental
interpre
No
discharge
miner
##tration
rich
##urr
classif
iss
##by
##ext
##arch
trip
##ics
CN
cation
transformation
Bec
##olds
Raman
amplitude
enti
##atin
##ask
prev
exhibited
rock
46
##ik
##ER
accel
coordination
##apping
spl
color
Eqs
selectivity
dielectric
isolated
##lier
Ge
##vely
failure
global
summar
chains
bal
##lysis
Based
Such
bed
distin
MO
bacter
Both
vs
72
optimization
asp
shar
whether
criter
##H2
##bor
##ellent
barrier
interesting
brid
annealing
##tization
instr
accept
MW
body
##tics
antib
affected
##ld
cyl
central
wr
##zz
exposure
needed
mid
Di
##ographic
last
simultane
grown
supported
thresh
cul
anis
econ
lowest
67
knowledge
designed
amounts
##onduc
radius
residual
amorph
##ash
adsorbed
nonlinear
land
relation
occup
cond
constit
affect
##cription
54
determination
requires
derivatives
reli
57
achieve
pepti
established
S1
defects
##ident
expan
excellent
Using
##hic
##ering
##water
counter
##avity
vir
##itting
ever
completely
##atically
quite
scheme
consists
##Br
rece
frequencies
six
div
m2
49
sizes
nano
##gin
600
pati
fiber
novel
loop
authors
bor
##acial
regard
ur
acids
forms
salt
56
emissions
green
etc
ii
fracture
sediment
viscos
population
Sp
perm
poor
positions
neutral
Sch
##inates
washed
decay
anisotrop
ST
future
constrain
bo
120
##ready
widely
extracted
##atch
gold
allowed
SP
industr
##orting
##BA
smo
hole
wet
fig
##umines
##lue
##uit
magne
biological
pen
pers
##mic
Because
approximation
variations
##ights
vapor
atmosphere
biomass
quantif
cause
benef
##urated
amorphous
subsequent
take
##ufact
swit
already
77
##ify
##uctu
text
resonance
overl
next
entire
##ections
precipit
98
##organ
ens
extre
slope
obvious
adjust
adv
metals
evaluate
excited
nam
##ouse
report
expon
fluctu
##odynamic
##ancy
commun
software
py
##oted
##ibility
law
thi
amb
help
early
First
year
contains
##thal
ap
scanning
63
##coh
##hyd
forces
##olar
##acing
AF
separated
done
##enari
GC
reached
third
During
##tes
62
##ataly
μg
##orous
condens
##sh
bub
starting
##ape
play
plan
##roc
##othe
64
probably
##exp
sand
strategy
##rystall
##ST
03
Also
steady
Gr
investigation
alloys
tum
USA
hist
cm2
semiconduc
SC
expansion
excess
##ience
move
technology
grains
assigned
composites
Two
##ometric
tool
##till
dig
aim
corrosion
tip
##dehyd
carrier
droplet
hot
reducing
##cope
manufact
particularly
neigh
phenyl
square
facil
##osite
considering
viscosity
cham
clean
relevant
occurred
##1−
Al2O3
acqu
##gn
horiz
NPs
hence
##ads
96
##oint
km
importance
ir
##ogn
CP
basic
distributions
anion
restr
exhibits
versus
age
exact
activities
HA
##icted
##ensile
aromatic
##erate
##inary
##alc
reproduc
location
deviation
AT
sets
##S2
##osity
IL
specimen
dd
simulated
accurate
##arbon
connected
##17
understanding
decreasing
Note
rou
rise
solub
##Ti
kinetics
modulus
event
alcoh
##oses
TH
Be
alkal
SO
confirm
250
cyt
demonstrate
threshold
##py
ammon
58
scenari
note
conjug
CC
varying
little
ann
deliver
sections
recovery
scre
##henyl
nearly
computed
##arily
alternative
detector
commercial
enzyme
extent
##pping
chloride
working
##ital
angles
##ressive
always
every
forming
##yan
transitions
aer
precipitation
represented
isot
##tific
kind
presents
suggesting
extended
lack
regime
ED
##ids
program
Addition
identical
Ba
maxim
ones
tensile
So
##SO4
##ta
##min
66
MPa
mA
##igr
metabol
doping
draw
metallic
van
comparable
##SM
##ude
composed
inhibit
##hedral
except
97
##osis
##ustion
depending
mach
heated
enough
typically
##25
describe
##oly
mixtures
parts
recogn
68
Pr
oct
suspension
events
disloc
##luor
hour
nanot
##tition
concrete
sto
##ground
activated
##Se
##EA
##ymer
##uk
mice
earlier
ow
tox
chall
rob
04
enhancement
##max
##enes
ice
##set
monol
##−3
C3
distinct
cub
rever
stirred
blue
elim
asymm
stack
numbers
satisf
molar
59
adap
origin
##tile
calculate
adhe
isother
Le
modeling
vi
friction
risk
##ults
s−1
##late
orth
fund
De
homogeneous
bias
optimized
App
2000
details
inner
illustrated
substan
stim
solvents
##aring
instead
review
testing
##arrow
combustion
##uting
refr
exposed
##pite
successfully
align
##seud
g−1
chromatography
precursor
##sess
198
##ylation
##time
clim
##RNA
diagr
exclu
attention
infr
charged
Sr
##tructures
##ened
stiff
##ata
Ac
##wh
sufficient
hydrophobic
lam
desired
medi
##ches
fold
tissue
abund
unique
consequ
##ung
var
##ulate
GO
labor
immun
evaluation
S2
##ars
ent
sampling
flat
property
China
favor
seems
dye
chamber
##itted
supply
800
Due
objective
channels
CV
μM
fine
69
led
possibility
horizon
78
##oles
computational
defin
##agement
apparent
CS
cancer
variety
synthetic
distances
compare
generate
##ises
111
experimentally
gover
##ched
Inc
87
media
reag
narrow
assay
patients
phosphor
##PP
background
##TO
tetra
distributed
rotation
Pre
stream
boundaries
melting
too
##ck
dark
Inter
mesh
oxides
recept
advantage
ambient
##nel
differential
110
−0
makes
improvement
##uminescence
microstructure
##eol
nanotub
Cons
##ry
51
SW
##atalytic
interval
possess
actual
Sub
##Fs
ceramic
modification
dominant
##CH2
substantial
correction
spectrometer
##21
predict
AC
carboxyl
pores
surfact
Et
##io
##igen
##23
concept
FA
fitting
just
schem
DMS
takes
rig
saf
smooth
##order
promising
uncertainty
phenomenon
selective
identify
copol
06
axial
##eness
##ED
##Mn
mobility
76
CT
sharp
74
phosphate
vibration
resour
73
migr
EC
responsible
prediction
##estion
##air
##iral
quantitative
##dle
HCl
inser
##uble
Each
##odies
densities
dissoci
plants
impur
dose
##alth
##outh
balance
##versity
PT
##orter
showing
2a
pan
existing
exceed
##H4
errors
##ats
chemistry
microscope
glucose
industrial
dimensions
##tries
integrated
cycl
##dehyde
##Pa
acetate
quad
interfer
surround
##rol
##idal
redox
costs
IV
compe
sulfur
outer
imaging
cathode
##Co
##bed
##olute
##agonal
batter
percentage
hem
DO
##inder
##cted
TO
##EC
128
underg
elev
##apped
cyclic
##PR
pseud
coal
Supplementary
listed
deep
##idence
hyper
PI
vit
##sian
Rh
##static
porosity
##BT
making
pip
potentials
host
statistical
##ading
Four
4H
##elding
static
##bly
agent
solubility
assembly
##temp
##ream
1a
nucleation
remaining
whose
##ellow
seed
##esis
accomp
electricity
stretching
purch
practical
excit
facilit
shifts
##sin
particip
rapidly
ranging
fabricated
Some
contam
station
##urations
kept
culture
gave
interfacial
MC
##LA
08
thermodynamic
findings
label
ideal
substitution
07
sensors
##tance
##FC
existence
##odic
##ipped
window
what
track
##sk
##turb
##lation
instance
plots
##Me
plates
##eared
capacit
##ords
month
integration
ether
defect
calibration
86
nuclear
fundam
recomb
reactive
##ached
neglig
μL
dise
ce
causes
##arding
##2−
hypothe
varied
83
management
##theless
white
##zo
##MC
##ogenic
##amil
disorder
##enting
plotted
##SS
MI
reflect
graphite
tor
imped
scan
##anium
bending
84
Fe3
##icular
mV
88
extract
saturation
##kn
get
##Ni
selection
##19
taking
##adition
##otyp
NA
XPS
donor
##thern
characterization
cold
##tre
vehic
namely
linked
DMSO
79
purpose
##ulations
arch
absolute
bis
##tine
C6
anode
matter
SI
##ild
stresses
##licit
remain
residue
commonly
##acting
HO
cos
##ict
remove
conduction
circuit
coatings
Pl
contributions
pathway
lithium
RT
##onses
changed
throughout
##otes
125
##equ
conformation
94
directions
##uction
polymerization
desorption
instrument
distill
special
penetr
##GF
propagation
pairs
##itten
crystallization
##ryl
##stream
##atus
##rile
hydroxyl
assumption
substituted
93
consum
responses
cations
##ochemical
Sm
Per
2010
zeol
volum
prevent
LC
focused
gran
brom
explain
correlated
##ods
##elf
detect
##ensor
negligible
measuring
quas
mineral
fibers
89
phon
Und
construction
compression
##heric
evaporation
spherical
summarized
remark
effectively
PEG
NP
MD
82
92
Des
correct
estimation
Fr
##arr
autom
001
##oxid
Recently
filtered
##idity
DFT
##asc
##amide
rein
figure
##take
##RP
##70
discre
inhibition
horizontal
##ymp
attemp
involving
inters
simpl
delay
pyro
roughness
Ab
##cher
genes
fresh
blood
gain
magnetization
array
description
##ury
saturated
normalized
formula
##insic
explor
quart
##lish
concentrated
DA
minor
##back
Another
##CO3
3a
##gence
##herent
inver
plat
##ai
##axial
AA
tension
##acent
##aters
qual
action
##oll
derivative
simultaneously
Mic
subjected
AN
perturb
61
iter
maintained
##ters
stra
##LS
interm
IC
proportional
##ocl
includes
##obil
##RA
dissolution
##oral
stiffness
purified
compositions
perf
visual
pi
##ulating
economic
Ne
reduces
waves
microp
comparing
sust
choice
repeated
##ichi
published
##ometry
adopted
Te
Gaus
classical
Mod
purchased
##rees
fundamental
wear
Under
net
context
monitoring
generat
GA
straight
##tation
##mentation
##avy
laboratory
black
networks
silver
contribute
tradition
##man
##ickel
contained
wee
monomer
flows
observe
residues
PF
L−1
alcohol
implies
reports
##ylene
closed
past
stages
##ergy
##tices
equipped
driven
##onit
symmetric
turbul
inlet
##igma
fractions
##aking
09
assume
cavity
##lus
##ulose
displayed
DC
##graph
mol−1
optimum
Among
procedures
alkyl
fault
mob
limits
nanof
resis
eigen
nanow
##ifically
lateral
earth
concern
cooled
cruc
PB
##organic
needs
orbital
glyc
semi
uptake
prol
cyclo
intensities
differenti
configurations
##anged
Never
##amer
domains
Additionally
adjacent
olig
advantages
applying
71
Nevertheless
H2O2
conclusion
gradually
cult
reasonable
consequence
##uck
compr
perp
##rob
##tis
Indeed
az
separate
sheet
artic
centrif
agents
##zer
duration
largest
##esides
eq
considerable
anim
situation
who
##GO
robust
photon
ensure
extrem
tolu
transferred
regression
##oids
filled
exponential
Nor
nanocomp
Consequently
slip
NaCl
clin
cubic
##come
magnet
quartz
##100
trig
aluminum
##ien
##illary
undergo
##ries
tail
front
700
incident
bath
permeability
manner
tunnel
stored
accumulation
SS
##endicular
##erge
Gen
dispersed
##lim
contents
##abor
lengths
##iments
Consider
peptide
perpendicular
head
belie
##Ms
constitu
##NPs
THF
##andid
methane
Calc
reconstr
changing
##TC
immobil
consisting
reinfor
##ift
fitted
harm
vibrational
##24
shaped
flame
##gue
##angement
concluded
terminal
##inement
exists
##H2O
Similarly
AFM
##stit
impedance
serv
check
ill
infrared
yellow
##off
faster
mi
neighbor
##ert
uns
##onitrile
regular
yet
electrostatic
begin
##etrical
CB
identification
stronger
nodes
##ellular
partially
hydrolysis
But
planar
nickel
industry
lifetime
adding
evident
immedi
##ano
HPLC
##yond
##anth
tumor
care
setting
marked
interv
##ends
##FA
loaded
keep
diagram
spre
Qu
true
MB
constructed
Sever
Resear
dimethyl
mesop
investigations
##EP
divided
transient
face
Other
##atigue
##alk
pas
##zing
##otropic
extension
initially
received
##romagnetic
dipole
intrinsic
retention
##TS
##Cu
inorganic
hydroc
examples
junction
opposite
TA
protoc
incubated
pressures
SiC
Nb
127
purity
rings
##abilities
methodology
SR
semiconductor
130
stoichi
shifted
##rown
binary
written
determining
easy
##tingu
##inations
fabrication
govern
quantity
reveal
definition
valence
unc
walls
toluene
fall
market
##NI
others
##asons
zinc
powders
sput
##anti
melt
sec
Several
candid
capacitance
utilized
spr
coordinate
##etal
##uments
emerg
LD
##iaz
##conduc
formulation
soluble
##33
reveals
##tivation
fatigue
2009
moist
1b
##erated
strains
CI
TC
criteria
implemented
reactivity
heavy
affinity
ultras
PBS
cour
AD
##inyl
##adily
coverage
##Ga
##isc
##drich
2b
constraints
involves
##ley
carbonate
ester
health
momentum
##cepti
cylind
cellular
HF
anisotropy
81
works
principle
fluctuations
expand
Aldrich
estimates
Gaussian
MR
representative
##Te
climate
sus
proceed
PO
##ynam
phenomena
Germ
traditional
##ench
centrifug
isomer
##ancies
planes
##sively
stirring
rare
And
##ste
mediated
##ah
locations
##ivo
sensing
##rief
##inite
##PD
distingu
##ounted
ranges
Ther
subsequently
complic
##idaz
lipid
oriented
grade
expect
asymmetric
SH
world
Research
ordered
ign
predom
polic
localized
embed
phenol
quanti
##has
capture
driving
appeared
2011
define
start
dimer
##ips
periods
assis
empir
##tonian
TS
node
mus
vivo
slu
##oprop
Exper
##ermi
food
engineering
damp
itself
##cm
##angular
##ulsion
Ir
radial
covered
project
mostly
deform
requirements
qualit
##ighted
feas
##osing
##opl
Most
##aneous
cm−2
subject
scales
##atalyst
attached
bios
averaged
suscepti
129
##eline
AB
question
safety
Sigma
respective
decision
2008
acidic
gate
rh
har
polyc
##ectiv
Ta
reaches
Typ
created
lear
uses
adhesion
surfactant
ES
wire
##rystalline
shall
migration
91
correlations
Car
##Ac
issue
TM
periodic
edges
Analy
FTIR
Hg
predictions
##son
occurr
converted
##NP
##itic
oxidized
serum
losses
bonded
##adium
##TT
FE
vitro
pent
microw
##sip
beyond
hardness
measures
shorter
Let
read
voltamm
##ichlor
4a
##usion
bacteria
aggregation
pix
##LD
dominated
New
integral
technologies
establish
drying
##rices
extremely
photocatalytic
providing
atmospheric
spacing
##32
##di
reflection
growing
Found
strategies
Samp
180
##ious
AP
hydrog
conform
##aldehyde
angular
Jap
resolved
holes
code
former
##CH3
entrop
##omal
LA
annealed
calcium
##itr
poll
influenced
assessment
##ades
solved
dissociation
sequences
capillary
##irect
infl
##ielding
iod
CNT
public
delivery
thereby
Fermi
remained
released
CR
superconduc
##cribed
greatly
search
price
infer
SD
kJ
aggregates
##oir
##enew
##NS
##zzy
##bles
splitting
purification
challeng
compressive
bone
monitored
##known
trace
Uni
discrete
outs
nanotubes
moisture
##amily
##IP
volati
##hex
access
middle
amine
traj
RA
induce
2012
matrices
RNA
belong
##puts
dissip
m3
pathways
burn
pin
gases
dislocation
##90
adjusted
fat
microb
##PO4
unknown
neur
ded
##Rs
##ortex
recombination
Fourier
compens
anions
map
min−1
scenario
reverse
NH3
variability
introduction
pic
##oline
epit
sea
assuming
receptor
phonon
bearing
algorithms
##etries
alumina
##int
aspect
cis
elu
Im
interfaces
TE
Pa
finally
##amolecular
ln
##valent
vess
bubble
CH4
recyc
collection
incorporated
implant
substitu
cement
simply
NO3
##ored
referred
blocks
C4
acetone
High
attrib
##ervoir
Mon
##tors
course
C1
##elled
highl
##ception
bip
summary
quantities
clay
##like
cm3
route
forward
##ishing
season
Or
##iety
computer
incorporation
##ulph
onset
##ra
SE
orbitals
bil
##itect
105
considerably
##chers
away
##letion
##lands
2007
disapp
surrounding
offer
##lies
joint
Second
cracks
benzene
representation
Ma
training
hexane
##H3
neutron
furn
reliable
resistivity
convergence
coordinates
LS
injected
readily
temporal
depicted
tubes
discussion
plays
HS
##role
elemental
##ynthe
alone
issues
hours
isotop
Interesting
occurring
reservoir
rule
ionization
distilled
##oti
quasi
zones
regen
capability
operator
hypothesis
occurrence
circular
CNTs
##urrent
##icial
explicit
Germany
tex
##∂x
collo
##asting
empirical
ML
chiral
resin
Compared
consideration
##2O4
##hing
protons
columns
conserv
kV
##acet
EM
HT
##be
transverse
BP
Er
heterogeneous
fuzzy
##part
Besides
renew
pell
CM
analyze
##nary
criterion
mobile
negl
allowing
##2S
absorbance
octa
surve
scaling
raw
Interestingly
scaff
possibly
enanti
##ull
incre
diluted
varies
ball
##cean
perfect
moiety
tra
coordinated
Hamil
regarding
##onium
switching
US
limiting
##roph
outside
##ytes
Spec
examine
closely
##arse
cylinder
family
Japan
##yclic
moderate
analysed
##ayers
reasons
rain
##oud
##uclear
##Es
Data
microwave
architect
diamond
3b
nitrate
∑i
rigid
proved
prog
attractive
##RT
hydroxy
salts
accord
##iling
radicals
crucial
underlying
sustain
velocities
resources
3d
built
flexible
##ounced
##inic
##ensively
centers
solids
return
implementation
norm
##otox
annual
Cs
explan
currents
sufficiently
steam
##rot
##atinum
acceptor
producing
cellulose
Nd
carriers
##oper
nom
hydrophilic
##arc
calcd
trends
precision
address
##osel
NaOH
VI
##vity
##VA
##etallic
deposits
##iation
pron
##fort
denoted
loads
2013
currently
##ery
dend
160
Europ
longitud
##acellular
NC
##elastic
##DF
reversible
900
superc
##acchar
phy
##inter
ps
classification
1D
researchers
##izations
became
aspects
monolayer
moving
discover
primarily
trial
##aching
##xy
##lyl
developing
##lowing
S3
##bs
once
equip
datab
Differ
task
rpm
##BM
clinical
sphere
panel
sintering
2006
##ientific
chloro
Vari
extensive
C5
supports
##oh
datas
replaced
essentially
350
harmonic
immediately
demonstrates
enthal
computation
capable
mathem
bind
zeolite
PH
elong
diagn
##enching
treatments
sulfate
article
H3
Chemical
##where
segment
sheets
Over
portion
pharm
##ovsk
ra
variance
##ethane
jet
alter
##phot
Up
##estern
rest
arc
−2
modeled
##ifer
superior
##urally
CH2Cl2
displays
environments
##imer
Europe
musc
##thermal
##ochrom
insul
pronounced
denotes
oxidative
ms
##versal
acetonitrile
rocks
##gely
inverse
140
predominant
Information
precursors
transpar
produces
largely
197
recomm
##N4
involve
box
2005
CL
potentially
da
entropy
root
##uals
Is
majority
accompan
Ass
##can
##used
AM
appearance
##otic
stain
assessed
movement
##ifications
shapes
##ils
##cale
coinc
stock
intervals
quick
Cell
copolymer
embedded
##td
##IC
##ogeneity
late
intense
quenching
relationships
argon
AR
Hamiltonian
worth
elevated
solve
Three
nanor
ethylene
DS
collision
NH4
##tz
SF
fluorescent
Po
longitudinal
basal
doc
template
ket
succes
disease
##NO3
RH
progress
Results
incubation
106
complexity
cycling
setup
condensation
sediments
hexagonal
kcal
hyst
##OT
replic
flo
nanoparticle
vectors
##ci
affects
##eta
##III
##ilities
dram
IS
##balt
inset
titanium
##ested
memory
##sibility
crude
ammonium
platinum
Gd
##avi
Even
Their
dual
zirc
antic
RE
enzymes
##ocene
controller
spray
linearly
PR
Gener
ammonia
workers
giving
inflamm
charges
##minis
SM
labeled
droplets
isotropic
alkaline
Op
Fol
machine
beginning
##GS
##asts
stationary
##ky
##amb
curv
2p
coast
pseudo
slowly
QDs
##estim
OR
lign
diver
conclude
##NO
Reg
tools
fragments
centered
describes
reliability
Gre
##isions
orders
##ymers
##benz
ng
2−
batch
acquired
##times
rotational
aryl
ash
##lip
##ether
arrangement
pulses
carbonyl
##encing
create
##Bs
KBr
platform
##35
126
##heres
BA
penetration
DMF
##oustic
##rical
luminescence
104
##tinu
toler
battery
##itudes
interpretation
sn
partition
##izer
overlap
eight
vehicle
Despite
##ban
members
ol
##FS
plasm
##dge
##OD
##oming
450
NW
##ps
drugs
##TP
##pt
disp
##kin
leak
TP
sulph
disturb
reflected
ferro
GPa
vortex
GaN
transformed
kW
entry
version
##F2
nanostructures
approximate
##flow
sorption
cobalt
Considering
bran
protocol
##agen
explo
mono
filtration
catalyzed
equipment
systematic
μl
apply
pyrolysis
University
beams
bacterial
member
perovsk
micell
##ln
FI
AS
##02
energe
##oung
doub
controlling
beh
interference
##YP
illum
cutting
waters
stere
HC
emphas
practice
countries
ultim
interl
quadr
dichlor
degrees
geometric
EL
Sb
ole
humidity
5a
outlet
numerous
survi
opening
compati
conven
##chlor
##imetric
##avage
complicated
hollow
dense
despite
ER
fragment
veget
DP
##DP
solute
1N
bridge
MT
owing
otherwise
wood
PCR
bare
##FP
HI
module
GS
accordance
association
put
Tables
Ob
cylindrical
damping
characterize
tensor
##bitr
Cor
ns
reagent
##DC
unst
words
nutr
fir
virt
modelling
Model
BC
##lined
favorable
parent
adequ
tank
##while
##mer
##uling
continuously
##hel
1n
DSC
##idin
##45
##atical
extra
##lux
processed
etching
specified
dioxide
2π
##eresis
##ectiveness
##yrene
consequently
hydrothermal
wastewater
preser
##ih
##ancing
fluids
standards
overcome
operated
mit
big
butyl
antibody
##assium
##aft
explored
R2
accurately
##urface
##atom
Many
##aul
Only
impurities
##sivity
nanowires
coup
##ategor
##rea
limitations
shock
extensively
##000
2014
polymeric
Cp
##irable
stainless
entr
TR
learning
mesoporous
MWC
##BP
4b
bur
moments
pyridine
##inating
sludge
representing
multil
indeed
inh
impacts
volumes
pretre
Pol
Following
##inking
randomly
own
rank
reagents
rib
conjugated
HM
Techn
controls
Mean
##umptions
vibrations
homogen
Ca2
regul
##31
cloud
stem
2004
##oy
manif
graf
##34
dilution
careful
spectrophot
##otype
packing
##ands
effectiveness
specifically
##F4
express
indirect
split
nanocryst
##irr
##BC
prepare
categor
##achment
adminis
##akes
6H
##night
interpreted
##ower
illustrates
encaps
##aterials
mis
arbitr
##amin
ME
hysteresis
sector
user
##iving
Str
acces
RS
pie
irradiated
biof
##osan
Cu2
regulation
Fe3O4
##ares
understood
rect
pet
deviations
##Ox
layered
look
cust
##agn
Na2
diameters
macros
MeOH
instability
promote
severe
##luid
consisted
scenarios
targets
validation
##orphyr
RF
nanom
minimal
toxic
operations
gal
hydroxide
south
why
spectroscopic
corrected
manufacturing
##esium
simultaneous
irre
2003
minimize
protection
rod
##Cr
##ustr
else
north
maps
##Mo
##iqu
stabilized
date
That
##tok
vacancies
inclusion
aggregate
skin
weights
buck
##tenu
##38
efforts
geometries
##ifying
functionalized
mort
valu
rol
conclusions
##ograms
##uth
##2O5
kinds
compact
spot
glasses
cleavage
##imental
mathematical
##mark
verified
months
similarity
toxicity
acceleration
##rite
attain
##IM
##mann
MgO
downstream
Ear
policy
##down
object
urban
rules
centre
efficiently
seism
##nm
foam
2002
recovered
Electr
inhibitor
notice
acoustic
unstable
preferred
erosion
house
tendency
##electro
diffuse
aligned
increment
assembled
DE
##apy
inhibitors
SL
##what
trigger
goal
segments
##ux
##odal
##Zn
##OC
anisotropic
daily
conducting
principal
invest
introduce
renewable
##acer
improving
employing
furnace
tissues
##na
cree
warm
soc
refractive
precipitate
curvature
exchang
econom
occupied
incomp
2θ
MM
discon
propose
##tructural
discuss
metall
database
preferential
basin
nominal
##iven
anodic
dynam
camer
peptides
potassium
twice
fem
##N2
explanation
ordering
##riefly
dt
Meth
significance
screening
susceptibility
##prising
CE
Given
connection
attenu
somewhat
coarse
singlet
boron
##27
##gu
constraint
arrays
##Sn
artific
contacts
abundance
##liminary
impurity
Supporting
##semble
abundant
Compound
availability
##ierarch
##26
NS
##ortun
triplet
Comm
assumptions
Therm
Anal
overnight
##iol
bus
dot
texture
yielded
uncertainties
polyp
brain
row
sized
System
##ophilic
weld
##rehen
aggl
round
Ltd
##GC
attack
facilitate
mapping
upd
iso
##inding
slab
polarized
apop
ITO
explore
##osol
glycer
classes
crystallinity
insp
##wards
supplied
cyan
##tt
sputtering
wavelengths
Previous
shr
stacking
2001
bioc
simulate
deduc
remarkable
ultrasonic
HD
polyn
##itively
meaning
alg
synch
##olysis
##OL
hetero
substantially
##eric
diffract
##omial
##1−x
physi
terr
##isition
vessel
induction
Imp
##enge
creep
A1
##acryl
Bl
flood
dies
DR
chemicals
##outhern
trap
fuels
mouse
table
infinite
##atment
requirement
behaviors
instant
restricted
thermally
modulation
Sw
vic
DI
##ethylene
##dynamic
sense
##DNA
spectrometry
##28
closer
Bu
accompanied
mot
community
differentiation
experi
##rich
service
electrom
advanced
##aves
deion
kHz
Equ
conductive
ascribed
simplified
LU
##osites
SB
thermo
GaAs
spread
seven
precise
influences
##tized
piec
solving
gau
##cetic
crystallographic
spring
electroph
BM
##idth
##egrad
##73
Once
Col
##itosan
crop
my
pollut
intermolecular
isotope
concer
pipe
epoxy
marine
##sen
til
xi
dyes
##29
##ered
##44
yielding
capt
crossl
##olve
hierarch
theor
confirms
enthalpy
runs
##AS
colour
visc
##oma
feedback
bright
perovskite
ICP
##Ns
history
coli
acquisition
LE
amide
spheres
##igu
exception
oscillations
Ev
recognition
comprehen
Samples
construct
convection
manip
##berg
Gl
##matic
candidate
S4
starts
applicable
drawn
##width
Zh
rub
Bas
##polar
Dep
iii
##titive
NO2
1s
##inge
Par
##olation
formal
transf
B3
resonant
clar
##alt
dislocations
SnO2
generating
apparatus
fluxes
##uker
##then
elsewhere
duc
##azine
ET
##ogram
defici
tunneling
##ocyan
efficiencies
displace
collap
fire
modifications
backb
##ili
##B2
hydraul
##apeu
Bruker
recrystall
##atase
separately
TN
##ests
intercal
##orr
stated
frequently
ceramics
##fall
acetic
liquids
build
##log
##GE
##In
##hemistry
135
nuclei
enables
idea
actually
thor
CeO2
LI
assisted
river
implic
lact
aqu
indent
Of
6a
supporting
mang
dimensionless
##versely
invari
IP
Tc
##ames
##uli
Hydro
benefits
social
##imethyl
reaching
CdS
sequential
EI
##arities
##ME
technical
##opol
started
refined
sides
classified
summer
inversion
ocean
crust
##nat
challenge
distortion
tin
ferromagnetic
perturbation
##75
##ee
enab
his
##arge
packed
regional
match
alignment
turbulent
##LE
combinations
schemes
stoichiometric
benzyl
blank
port
##isher
defl
cationic
##iness
performances
evaporated
Vis
merc
la
##fol
metast
##ocytes
deposit
HRMS
mer
##ocal
cum
Form
genetic
indices
##rel
absorbed
prolif
cf
Yield
expressions
her
native
Next
neighb
##agr
fusion
stabilization
aging
refinement
confined
generalized
2015
Sol
ZrO2
ka
dissipation
##ucle
##ken
ΔE
discrep
drain
##elet
##ulomb
acetyl
weeks
analyzer
strip
interact
transcription
branc
exactly
##roup
Fe2O3
TD
insight
glut
##ighting
pit
P3
##osomes
T1
##tite
101
Mul
animals
SV
diagonal
purposes
##onate
hold
chip
ec
batteries
objects
operational
tan
##oints
tree
MoS2
qualitative
polys
##ochastic
liver
weighted
##ondri
effort
yl
##licity
sliding
covalent
retained
##PO
OC
experience
##±0
hydrogenation
precipitates
vinyl
roughly
Det
BD
extreme
flexibility
Med
DH
RO
quickly
##obenz
TGA
Val
squares
shallow
hydration
nanocomposites
nanocrystals
permit
##lat
cracking
transparent
spont
TG
RP
populations
serve
piezo
hardening
cytotox
barriers
anomal
sound
##ophen
Min
##engthen
hydraulic
illumination
causing
neu
isomers
depletion
##iline
##Ge
beneficial
monomers
##isons
denote
##othermic
drops
chitosan
suspended
Reyn
##ople
##Ts
Not
feasible
Pe
eigenval
2C
biod
Kα
reflux
resistant
BSA
minerals
camera
passive
##rie
Mar
Instr
suppress
bubbles
##go
##asks
##F3
##53
intercon
scal
vacancy
macroscopic
baseline
individuals
circum
transl
1999
probes
conductance
BN
decades
plateau
HOMO
##dt
##ester
inputs
oz
nanofib
cast
NH2
bridging
##anese
103
catalysis
UK
##occ
##HM
##ucid
##quin
discontinu
##tivated
ranged
immobilized
proxim
deionized
ways
artificial
realized
Mill
##rose
Reynolds
acts
##ieties
document
alkali
insertion
quenc
5b
ellip
##tivities
intermediates
P2
##Li
∼1
stochastic
North
broadening
conservation
nitro
buildings
trapped
neural
opportun
pall
statistically
photoelectr
weather
immers
irrever
leg
contamination
hydrodynamic
calibrated
lys
##FE
##omethane
enable
##ochondri
imidaz
localization
carboxylic
##endix
Energy
displacements
hep
contrary
2c
filling
favour
##aken
polynomial
NiO
week
segreg
illustrate
DT
oven
##ush
geometrical
acting
EA
papers
utilization
vap
##cing
survey
##crim
reflectance
Its
##opes
##H5
marg
pool
weaker
##totic
fatty
cyclohex
disk
Go
fair
neighboring
digital
##Na
milling
##65
mp
twin
viscous
obtaining
reflections
##olet
accep
old
copolymers
morphologies
transmit
porphyr
harves
Generally
turbine
##ormal
reflects
verify
analogous
additive
170
##ishes
enrich
communication
##ifier
rectangular
tends
124
##Pt
C60
##otal
Rep
Yb
550
faults
imag
##eff
sun
##istine
##mm
seismic
obviously
actu
tax
MF
record
RMS
Meanwhile
attracted
##x2
manufactur
naph
ten
lies
Red
1998
glycol
plus
monot
fed
Pub
##ourn
##riched
void
137
Tb
trif
colloidal
sintered
quin
ID
##ugh
extracts
sorb
mirr
interpol
concerning
##ember
diesel
elucid
##hydrogen
micelles
Dr
swelling
uniformly
dust
disordered
satell
gravity
Sec
##×10−
swe
proliferation
##pyr
regarded
Accordingly
##TiO3
microf
preliminary
##oting
degen
charging
describing
calculating
extend
arbitrary
numerically
contour
National
architecture
distinguish
##aturated
offers
neglected
muscle
steric
freed
##Pb
Trans
##oidal
backbone
##HT
bit
##ato
##gl
blend
Before
microbial
virus
microscopic
Non
Δt
winter
tight
##isp
never
reconstruction
turbulence
slower
beads
ri
##isper
FW
1c
##tenance
believed
OD
foss
operators
A2
##oring
##55
##ovol
nanoshe
satisfact
leakage
##e−
inhom
mitochondri
happ
∼0
microm
Gu
##oor
Young
gradients
##cin
performing
traff
agric
quantify
##eper
cores
##arbons
##opropyl
nearest
reform
##activation
moieties
desirable
##aer
negatively
combining
quadrup
thought
##agon
therapeu
minutes
discrim
micrograph
enriched
Appendix
trapping
pixel
initiation
replacement
NE
hydroly
efflu
equival
freedom
keV
##cript
strati
resource
##atite
##∑i
fro
matching
##estic
motor
held
lens
magnesium
volatile
NF
eqn
scr
signaling
afford
titr
substituents
commercially
assays
induces
##fication
acceptable
pristine
radio
##nov
##36
##Cl4
haz
orientations
intramolecular
FM
exciton
QD
rej
normally
pointed
people
FC
##Sb
radiative
recognized
macro
SDS
anth
##ynthesis
interlayer
soils
photod
mal
Green
asymp
fibre
introducing
##enyl
298
compute
##pi
##elt
employ
quantified
ho
fish
validated
maintenance
forec
Fe2
boiling
sched
##olving
multilayer
##Nb
TB
##itives
subm
coil
wild
resonances
jump
##emic
chemically
directed
mild
##ohydr
nanocomposite
buckling
COD
arise
ternary
rearr
respond
##tosis
extrap
isotherm
Sea
x1
death
mole
Hf
##ysical
##iph
ends
90°
isotopic
comprehensive
Met
Electro
NOx
generator
metric
NR
EF
220
principles
##changed
##HP
Py
indicator
stations
glycerol
##LYP
##stand
paths
##phosph
rotating
addressed
BT
Subsequently
statistics
package
##EL
##urg
##illed
##actor
realistic
##oupl
K2
colon
EDS
##ophene
microsp
##abatic
##−x
Different
##ike
supernat
##king
##bo
electrolytes
##tro
dehydr
resultant
##fortun
piezoelectric
benefit
##imes
136
L2
sectional
photos
isothermal
ij
installed
##Zr
PANI
animal
LO
cathodic
irreg
vicinity
subtr
##orth
adduc
bim
forest
acryl
nM
orthog
##otential
2d
##01
intra
##inger
neurons
Analysis
##ycin
##ectic
##ylated
inflammatory
adequate
mounted
Max
1200
##ada
dots
108
comes
equilibr
disrup
multipl
##ologically
##O6
spectrophotometer
benzo
supplement
ND
smallest
Water
bilayer
travel
Carlo
FR
123
quantification
##othermal
reactors
item
##iers
collagen
##gst
palladium
supr
enzymatic
thicknesses
109
138
diffractometer
satisfy
Stud
##oped
reinforce
flask
115
picture
figures
incidence
participants
P1
##ectory
##ele
T2
none
positively
Now
phosphorus
lignin
##ymb
polycrystalline
Nature
##fortunately
let
##bar
dataset
unchanged
ord
##ogenesis
mL−1
Dec
Monte
subjects
volumetric
BET
octahedral
took
thorough
lost
prin
Instit
##lution
##forward
##LP
##42
northern
chloroform
Cal
River
Ke
Upon
isotherms
##uary
##ients
##uran
amplitudes
antibodies
ves
TOF
Kr
limitation
oste
enter
planning
axes
##tein
coherent
##NR
receptors
PMMA
notic
##∂t
hydrocarbons
meet
physics
trajectory
aluminium
1997
surprising
SO2
LUMO
strengthen
European
FS
gels
independently
nanorods
weakly
elimination
iner
##ascular
immersed
photoelectron
washing
##istent
similarly
photocatalyst
calcination
mart
million
arising
ly
affecting
##ulative
tough
##Vs
analyte
journ
confidence
drift
Cre
DB
Coulomb
analytes
calor
##ipher
South
gaps
anhydro
dimin
refrig
zircon
transduc
starch
cultured
##band
meV
morphological
##ido
CHCl3
##vation
ATP
inert
dm
##rought
interconn
##anthan
modern
##ignific
##tron
##unc
rats
schematic
133
suppressed
##after
##ogenous
rainfall
ΔH
aust
##azole
guar
southern
od
##OAc
hydrocarbon
RC
amin
tungst
vegetation
wells
lamell
branch
ensemble
simplicity
##amma
completed
kin
131
peroxide
substances
Experimental
##48
##Bu
agglomer
PVA
filters
presum
EP
##omeric
physiological
##titial
##Ls
Ln
titan
##Gs
sampled
photovol
oscillation
m−2
theoretically
determines
mRNA
107
calcined
diverse
emit
µm
vehicles
arises
##L2
competitive
prices
anch
usual
Calcd
##urry
fossil
##vis
attempt
dramatically
intracellular
##agg
##isson
O3
##aceu
initiated
##pective
encoun
wafer
mism
deduced
loops
##oluminescence
##Ph
CuO
##anned
##load
projects
shel
leaching
L1
filam
monocl
traffic
EPR
lamp
##opyr
diethyl
running
EG
comparisons
ferroelectric
capacities
Partic
libr
passi
##RS
survival
pig
SU
imposed
2A
constrained
scans
regeneration
captured
6b
Figures
photons
organization
bench
nozz
antifer
powerful
##uss
##R2
brown
interacting
scope
dispersive
collapse
##eller
##iltration
diversity
quantitatively
span
share
exh
interior
sonic
contributes
guid
##yne
TL
##ecu
cry
##kel
derive
##ignificant
austen
##lates
10−3
proven
interstitial
##Sr
inhibited
eventually
cooper
134
arri
sa
##VD
RI
corro
valuable
metabolic
##imeter
##dy
AI
histor
drag
bromide
inhibitory
##itt
groundwater
circulation
pellets
voltages
studying
maximal
promin
symb
sealed
rins
NT
switch
lac
Mat
##ersion
enrichment
##aven
PDMS
Wa
continuum
∼2
drastic
##tity
H2SO4
##ophore
Ser
tert
adsorbent
alcohols
fibr
##ounting
destr
situations
hydrogel
##GG
dc
##regn
##hedra
offset
thre
vapour
blends
##atest
expanded
##icts
shrink
predominantly
confinement
valve
##une
tuning
recommended
##aceous
exponent
entries
categories
##54
additives
silicate
gauge
hazard
behind
drive
##ga
##well
##66
##asion
##vities
retrie
##NC
nanotube
Lew
##ommod
torsion
μmol
##illing
thiol
BS
lag
##we
collector
regulated
##ashed
##urity
noticed
upstream
guarant
accessible
strengths
##aceutical
##oltz
sweep
Inst
##tility
##PT
dynamical
synchron
##dep
unp
x2
anionic
isolation
R1
Poisson
Ri
gro
ultra
therapeutic
quenched
competition
toughness
depths
##ued
unre
carefully
pollution
accommod
##zen
anhydrous
ha
flash
##ionic
slurry
##rin
132
convenient
##aim
expensive
ultimate
road
nucleus
users
antioxid
binder
coastal
Intern
##3O4
dichloromethane
superconducting
couple
M2
##78
Ig
D2
reacted
##arn
leaves
irregular
##cl
recording
Ini
breaking
NI
##point
##herence
conformational
tracking
protected
reconstruc
##osa
##tified
anatase
come
750
pain
Hall
inherent
##ortions
imper
Ul
##ione
helium
spots
apoptosis
recip
##function
##yll
Labor
maxima
challenges
##kl
3c
utility
##aseous
##ritic
straightforward
7a
##yb
Meas
infection
embr
afforded
triple
Wang
western
##osal
contributed
attachment
bars
structured
##ico
fluctuation
promot
##ectories
adaptive
foil
∑j
##isely
IF
successive
cultures
motif
ozone
linking
##wer
locally
initio
consumed
emitting
NIR
diffusivity
analyzing
carbons
Nan
complementary
Phot
promoted
##olin
B2
650
improves
accumulated
resem
##ii
##atches
##vari
regardless
HRT
viability
##van
pal
C18
Num
ages
e−
exceeds
mW
##apac
GH
rat
tetrahedral
LB
GB
##C2
TT
therapy
pretreatment
##idyl
deformed
methylene
partly
targeted
Merc
LDH
Flu
impregn
outc
accepted
newly
119
rhe
trajectories
descrip
tetragonal
PET
Within
Lang
bif
dos
adhesive
Chen
continued
##uge
1996
scaffolds
status
clustering
distorted
tolerance
regimes
carr
altered
dihydro
mutant
option
dendr
##arith
diseases
compart
##ius
trib
3000
Lewis
##cepts
Bay
ignition
##undred
B3LYP
##roleum
reinforced
eliminate
##idge
Dy
explos
evidenced
urea
##eck
gaseous
excluded
living
##a2
cardi
Ox
##ND
transportation
##henium
effic
deal
Refs
scattered
kern
generates
MH
fourth
##Mg
NB
satisfactory
flowing
##osome
earthqu
metabolism
carry
ΔT
polarity
##bl
islands
##ners
##luoro
mil
htt
olef
Unfortunately
photovolta
productivity
MCM
electromagnetic
IM
##ultural
Cryst
speeds
peripher
Af
sulfide
121
10−4
volcan
Overall
##56
hundred
LP
10−1
##enn
believe
Sing
Ho
aug
fits
surfactants
tungsten
arm
improvements
##ystems
##erator
##etrically
conve
Micro
choose
##lete
Type
holds
adi
caps
topological
centrifugation
##ifies
elongation
investment
dro
EtOAc
vor
recycling
perspective
challenging
HB
sustainable
Step
##F6
EDX
Gib
naturally
##imide
##37
##bilities
Compar
ΔG
secre
consecu
fermentation
paste
1A
##ittle
fluoride
##ycl
microstructures
4f
suppression
pharmac
satellite
sugar
wavegu
orthogonal
journals
Can
##c2
list
HE
manganese
##CO2
122
voltammetry
emitted
hierarchical
##abit
wider
1990
##vance
slopes
vesic
Specifically
LT
##arboxyl
SER
validity
enhances
utilizing
biodegrad
##VI
pixels
irreversible
dup
logarith
spontaneous
Tm
turned
pulsed
disappear
lanthan
coex
##avimetric
GHz
##99
neither
Gal
masses
Zn2
shells
Bo
##ensors
##ds
potent
##orphic
accounts
sandw
##ilm
MnO2
TF
precisely
112
joints
systematically
##roton
Hu
inserted
prominent
breakdown
tot
IC50
1500
Bio
0°
removing
semiconductors
##draw
PG
cleaning
rational
fung
##ogle
##ails
Austr
explicitly
bent
repeat
240
tab
maintaining
3J
deuter
##41
Mg2
h−1
PED
##AC
1995
appre
jus
spik
farm
Cur
Cent
install
effluent
##hold
enhancing
OP
electrosp
Ze
keeping
Whe
##arin
##ostat
##fied
##ender
difficulty
##iring
anaer
SWC
supernatant
detectors
adm
ferrite
ru
bic
##idation
##43
potenti
compatible
SO4
broken
blocking
antim
strict
##idden
computing
##ipping
##uming
Formation
scientific
approximated
##iton
rolling
##sm
Google
withdraw
die
MWCNTs
refers
leaf
dopant
indication
biodies
unus
overlapping
casting
##haps
fairly
fly
Initial
##pha
indicative
rubber
##aust
PAH
innov
deflection
carboxylate
medic
FL
dashed
Recent
er
GP
##uits
FP
torque
orange
##Med
OS
##eding
ven
cm−
stretch
bandwidth
##olith
examination
prolong
exit
Taking
strand
hydrate
118
nanosheets
Instead
S5
faces
lung
##astere
actin
##ned
##field
cumulative
##echanical
bund
##mu
inferred
optimize
mercury
sometimes
iteration
transist
sett
##ectin
##xx
##oxane
fragmentation
##orre
IT
##ills
##Pc
##imetry
DMA
148
PEO
sie
accounted
mim
##∫0
##elves
microspheres
male
##RF
pollutants
exec
trop
petroleum
gamma
virtual
Scholar
FD
mask
##aker
trials
encod
pale
modules
31P
evaluating
para
cm−3
permeation
aerosol
proof
transformations
##ymmetric
metam
excitations
roles
WT
scaffold
PU
196
rev
polished
##tid
DD
ArH
compan
Increas
programm
indicators
perc
staining
diagrams
governing
dilute
guest
reactants
accelerated
island
feasibility
##ID
Americ
nozzle
margin
candidates
amines
ren
conser
Ts
hydride
##anted
projection
##ostic
triangular
dehydrogen
##eor
plu
##elines
RB
biodiesel
##err
unf
Scientific
210
##elle
ta
quadratic
##EE
leaving
Fl
radii
Lu
extin
manufacturer
thermoc
145
xyl
nanoscale
references
gradual
catch
panels
##yte
diastere
##odec
topology
immersion
photocurrent
qualitatively
##treated
Group
select
neat
averaging
1100
ecos
deeper
EB
cros
increasingly
##cho
demonstrating
prove
constitutive
emulsion
deterior
administration
necessarily
rGO
##azol
##oup
##iders
116
##r2
centrifuged
adiabatic
dx
μs
Os
matched
Ro
##gap
steels
tag
##ster
NCs
corrections
efficacy
singular
invariant
##onics
PSS
SPE
##ka
##geting
STM
mirror
lic
PubMed
reactant
##eV
checked
casc
prem
possesses
KOH
score
PPh
formulations
helical
miss
##i2
envelop
Assuming
##fficient
triang
Mc
glycos
considerations
reinforcement
ans
∼10
home
##estions
traces
appreci
kD
transmittance
assignment
doublet
##ini
stoichiometry
segregation
##olester
##ZT
##ford
reasonably
##ette
Hol
##ocation
lamin
immune
targeting
elevation
acceler
##ilane
hydrochlor
##oon
AL
mitig
median
VO
chromium
##SZ
spins
kg−1
eut
bases
##oxidation
##orber
technological
exhaust
##ref
##accharide
aux
protective
coales
##N3
specificity
satisfied
lie
KCl
pellet
ye
confirming
seasonal
##itrogen
PW
claim
anaerobic
##asing
##ycle
serious
117
precipitated
JE
drawback
attenuation
##unctional
digestion
foot
##H6
agrees
fractional
##anent
Em
insulin
curing
underestim
hydrogels
LM
ROS
deb
pK
fuller
parametric
hinder
stop
##ession
focusing
##47
4000
http
author
##iazole
cleaned
cy
financ
PLA
##iphatic
salinity
molten
##ss
##head
##μm
designs
2×
##antic
crystallite
FF
##ossible
moves
popular
##olecules
easier
named
organized
nine
##usting
Dis
inte
##sia
substituent
discrepancy
arsen
scaled
questions
intensive
absent
##ney
applicability
##NN
diode
WO3
vide
properly
energetic
fibres
##gent
motions
verte
interpret
instantaneous
dimers
spatially
cone
##T1
Eng
passing
aged
nanowire
##onite
science
modelled
consecutive
##trans
##bra
records
##stock
inclusions
elasticity
mutation
reviewed
##ula
B1
dic
concepts
##inear
monolith
ant
Tg
PEDOT
##entral
terminated
adapted
chromatographic
##ulus
E2
subun
regis
##uly
##ostatic
alb
permittivity
arrow
suffer
esters
intact
selectively
139
Perkin
Case
amplification
##tructured
photovoltaic
##ophosph
trade
extinction
unity
##XS
floor
creation
2016
selen
wires
GR
emul
##forms
screen
antiferromagnetic
##shore
attempts
tect
##agne
operate
failed
##ectives
dur
##actions
concerns
##urate
##lines
meter
##ategory
slic
corner
##amination
##orm
saline
analogues
unsaturated
##ozo
bodies
modify
pumping
din
##fr
patient
afor
carrying
##hr
east
Temp
agricultural
Cl−
voids
##OM
##orh
tryp
Stok
achieving
##emp
##tism
Multi
##anine
##tegr
spinel
sink
implying
carbide
Int
heavi
trunc
##opro
anticip
Thermo
##accharides
##chemical
aper
GD
beg
methoxy
##CT
Again
insu
##oselectivity
incorporating
experienced
Ray
overestim
empty
eastern
Stokes
untreated
replace
##orbed
CVD
hybridization
EDTA
Kn
say
conjugate
ds
2B
suspensions
constituents
MeV
Naf
outcome
##CD
flav
Institute
##muir
##uv
Vol
topography
welding
H1
##lemental
##ev
##Ws
CG
Waals
predicting
grating
5°
lowering
repair
Man
tuned
mismatch
pay
Exp
EU
fulf
280
##39
covering
steep
##ked
H2S
nutrient
fouling
west
aliphatic
Through
##gg
##ulties
##vironment
##∑j
FWHM
governed
predicts
fs
uncon
dB
formulated
N1
accomplished
Langmuir
reproducibility
Eu3
##eral
Instruments
##ombic
paramagnetic
##46
going
doses
##f2
##imidaz
plasmon
Nafion
Altern
asymmetry
equally
pharmaceutical
implantation
4c
discovery
##orescence
services
##hal
proceeds
creating
wetting
##rupt
##k2
vanadium
porphyrin
metabolites
government
rotor
Bel
EE
##standing
supramolecular
##ementioned
seaw
residence
##eine
decline
glassy
practically
shoulder
yr
##La
Prior
##asp
nanofibers
rut
preserved
ey
restor
E1
call
oils
benchmark
macroph
overp
mant
tasks
triv
Sur
aforementioned
crossing
markers
syr
presumably
frozen
##ki
documented
Unlike
AG
synerg
imply
imaginary
Stand
passed
exhibiting
stimulated
##asive
Ha
les
C8
supers
Carbon
poorly
##ubric
8a
Clear
objectives
nitride
##omethyl
consistency
10−5
1C
difficulties
companies
chemis
##erates
mention
stimulation
##use
ablation
rout
financial
shelf
industries
##otide
molyb
convective
lying
NM
detr
Ni2
##ilst
membered
explains
##aturation
##titution
exces
universal
immobilization
##HA
cutoff
##ompati
##tia
invent
feedstock
cyst
##stone
compares
proximity
canc
fash
thems
themselves
detectable
102
Rel
Comparing
chlorine
SBA
##inants
CCS
zeolites
Low
##imp
±0
crosso
unless
metastable
undergoes
CF3
lipids
characterised
noting
snow
differs
routes
230
##activity
insulating
##atit
kinematic
JEOL
M1
category
##95
##dx
##US
grinding
actions
##OR
retard
synthesize
cohe
apart
F2
Hig
Obvious
CTA
rup
##acterial
EIS
shrinkage
inoc
##ana
∫0
Measure
modal
insol
PEI
germ
facility
heterogeneity
##vent
##oplas
complexation
Various
facile
monoclinic
electrodep
junctions
concerned
kPa
acidity
famil
remarkably
validate
##advant
##Et
fashion
##olic
CCD
DF
lot
kDa
feeding
granular
bpy
5000
TI
crosslink
##onucle
esc
lubric
micrographs
implications
exchanger
OT
dead
cha
phyt
glob
cholester
HNO3
photoluminescence
national
protonated
frac
Da
RD
herein
apparently
PES
uniaxial
entirely
##othel
raised
grained
bounded
functionality
##atorial
##titude
neighbour
##uminescent
Tris
microstructural
attribute
epitaxial
brittle
decade
##NH
Austral
microorgan
cytotoxicity
inform
fron
scalar
absorber
k2
usage
##aternary
Standard
mantle
Comb
volcanic
preference
disadvant
solidification
fri
1B
ZnS
titration
crossover
##acc
##uel
repulsion
0001
capital
ej
indentation
cop
##oside
elution
integrating
mechanics
outputs
Firstly
adopt
Merck
Sel
spite
highlighted
##osphere
rinsed
Obviously
10−6
OM
Like
capabilities
cavities
##Pr
##atomic
unb
hept
Zhang
##ymph
versati
yeast
Mi
spreading
burning
HRTEM
reversed
##pen
Afric
alge
pil
Numer
##ji
settings
Surface
Briefly
##98
degraded
probabilities
rutile
noticeable
##cp
EX
embry
PCM
asc
subc
consistently
reproduce
Boltz
##ives
delivered
158
##rous
streams
##adec
##P2
Lor
PVP
##idene
Ep
firstly
##fers
rods
identity
OA
deproton
PO4
146
rays
##LO
##ara
disturbance
##rog
eliminated
fused
##licate
##Ru
microc
filler
thoroughly
enl
##istence
landsc
habit
decomposed
carbohydr
kinase
vacuo
branches
aimed
##52
ee
l−1
##oresis
attributes
programs
perhaps
country
LH
##fold
1994
1d
##T2
BF
##ilation
SG
hopping
cantile
002
##∂y
##auer
macrom
Rem
injury
fcc
Dir
Co2
cc
##apl
antioxidant
promoter
mitochondrial
insufficient
Mass
interpolation
variants
advance
regulatory
meteor
bring
minima
healthy
organisms
Lagr
##elocal
See
##etary
comprised
superf
austenite
roll
##tium
assumes
##fl
##PI
heteros
7b
##lob
bp
S6
Total
ILs
##urc
##RC
avoided
Shim
unusual
IA
timing
discovered
##acr
inspection
##ulsive
ni
grafted
citr
continental
##iliary
medical
Cont
##acrylate
multic
viable
oscillator
DOS
collisions
communities
debr
meta
projected
##opent
Earth
counting
phenolic
a1
tel
##2C
till
brief
options
delocal
India
3A
Fc
encapsulated
Ra
comparative
##ammonium
##opy
heights
encl
polyethylene
distinguished
asymptotic
##AG
##mb
donors
marker
crystallites
##49
hind
Equation
correctly
diab
##ystyrene
##ulture
##umb
∼3
inequ
CFD
links
PEM
Boltzmann
forced
originally
sharing
linearity
Spectr
eigenvalues
enabled
RG
remote
polymorph
insights
identifying
##roid
heteroc
cage
##IF
fluence
deficient
##inese
ramp
standing
stabilize
compress
##annel
PVDF
##obl
AgCl
##zu
missing
condensed
chel
hydrated
MG
thicker
BE
AuNPs
unlike
mutations
##2O7
comprising
DG
particulate
preferentially
dehydration
sud
martens
Chinese
SERS
phosphorylation
calcite
antibio
extracellular
N2O
supplemented
Cells
##orient
##oyl
predictive
##going
outlined
D2O
brine
##NG
Herein
exclusively
latit
widths
BL
valley
trimethyl
consequences
compet
##ihood
robustness
##ilent
scav
visco
exergy
freeze
iodide
jud
count
reflecting
##esian
unexp
covers
##ovine
HL
mortar
##0000
##96
##osilic
##uff
helix
##opolymer
pitch
##m2
crystallized
ORR
contraction
sedimentary
ith
##iration
traps
implicit
loadings
subset
diphenyl
handling
greatest
unli
iterative
abrupt
positioned
alpha
fluorine
debris
cad
briefly
flight
kernel
lake
360
filtering
transmitted
contributing
##ON
##oms
arranged
estimating
##xi
abr
unlikely
AST
##itin
dodec
encountered
functionalization
Agilent
pp
belonging
Complex
grids
endothel
implanted
##normal
insoluble
##ophysical
m−3
perfectly
Clearly
alternating
consuming
pour
PPy
sudden
Poly
##orthy
seawater
superp
##aked
om
bandgap
##oselective
NN
undert
lymph
Eg
##ba
##otypes
##ankton
##−0
##idium
##orhombic
martensite
aldehyde
−3
##Ca
190
VE
turns
genome
grafting
Science
##ella
correlate
humid
##atories
Shan
soci
BB
P4
demands
stained
114
dipolar
##uler
permanent
entang
datasets
Mn2
continue
replacing
##−T
windows
adjusting
GW
##ference
covari
∑k
a2
2H2O
osm
ble
##reast
##obenzene
Gibbs
##91
##Bi
165
assembl
aid
sulfon
preven
designing
recrystallization
TMS
Conc
##ountain
attained
slag
##imers
instruments
safe
equals
asph
excessive
facilities
physically
broader
heart
YSZ
holder
FEM
##mented
ANO
##itors
investigating
##aired
Del
ruthenium
Ec
compli
C12
orthorhombic
Do
##acu
##tinal
Basin
##Re
##tification
CdSe
rely
aliqu
ultraf
aden
Rb
DL
PCL
web
rearrangement
war
incomplete
1993
insulator
ventil
147
DW
Mal
pri
filtr
comprom
impossible
marginal
biocompati
conflic
##house
intersection
What
roof
Co3O4
computations
∼5
defining
finger
begins
##61
laminar
4d
intended
Fre
##lem
##hedron
markedly
155
siRNA
gasification
focal
macroc
intercalation
Land
blade
##ozoic
conformations
##ronic
algebra
##asis
CaO
items
transported
rac
thermocoup
ortho
connections
##Is
##olip
monolayers
##VP
bridges
d6
reversal
LR
vul
cholesterol
Thermal
theories
Super
spac
MAS
PAA
PK
##FET
##imal
Es
Li2
Elmer
exothermic
##omy
vial
##restr
##lin
##usp
##eleton
translation
DOX
##ancer
polystyrene
circle
RGO
##robl
cup
fabricate
Arr
##ulin
850
miR
accounting
business
integer
integrity
alteration
TLC
NWs
flexural
##antly
machining
amyl
purely
scores
##R1
library
##→0
##mod
monochrom
##cool
symmetrical
Pi
Lo
pm
satisfies
reforming
dramatic
##amate
diagnosis
His
etched
HH
urine
structurally
spaces
Cy
cere
##avenum
linker
abstr
Technology
320
##dehydes
tris
PCA
auto
prolonged
PPh3
##ns
311
solvation
goes
##tiary
##ani
k1
##odynam
adaptation
##97
trees
##63
AlN
##orem
breast
mud
Act
totally
closure
compressed
wavenum
VA
compensation
ferroc
plume
brought
##rust
auxiliary
coming
fewer
company
##p2
##eworthy
EN
noble
anten
considers
monod
Ste
45°
##ensitive
combine
##da
stands
##stac
##itely
##henol
##ammal
##olium
convex
113
##−H
friend
iterations
pyram
termin
AZ
deactivation
pock
Increasing
fertil
Organ
coherence
##ophores
soot
nanomaterials
##3O
tidal
assemblies
acyl
modulated
encour
bigger
Mes
##spec
extending
walk
WC
##acene
aims
analogue
reconstructed
aperture
##aviolet
online
completion
bore
##n2
r2
moved
Atl
May
##yros
colorless
Micros
5H
##embr
PF6
practices
##lon
connecting
deplet
policies
scaveng
corr
sustainability
conserved
adjustment
uniformity
depicts
pill
expressing
Chem
wheel
microfluid
filament
##angements
oxal
recommend
Gly
job
upward
D1
promoting
Jan
GM
passes
ductility
##urrently
string
approximations
##eptide
6H2O
##light
##tious
convert
conjugation
5d
GFP
supplementary
aq
168
plug
##kelihood
logic
##oster
strik
AO
kit
##ariate
##olytic
alternatives
elongated
signature
waveguide
Single
city
Molecular
favored
styrene
C3N4
144
permeate
promotes
##ww
possibilities
bovine
##izable
##phase
BH
α2
CD3
##ressively
Substit
MWCNT
##Ag
##Ar
##cryst
##→∞
Chang
P3HT
halogen
##alg
gall
##IT
pieces
##inn
tumors
gray
##ls
##ethanol
lowered
antigen
##ulates
seeds
surrounded
##ulfide
extrapol
Na2SO4
emerging
electronics
##pread
unexpected
importantly
MOF
##K1
Though
envelope
##yclo
theorem
outcomes
##eterm
CW
summarizes
##71
##lication
oxidant
Lab
hardly
obstac
competing
decisions
Eff
autocl
opportunity
005
iodine
2n
##Pd
##B1
SOC
##sorption
##tran
oxo
attempted
humans
cytok
mining
played
viscoelastic
##ault
institution
progression
Mark
##FF
ultrasound
##len
rice
eluent
epithel
damaged
##ativ
compartment
##amethyl
automatically
shielding
Sal
lifetimes
ordinary
SQ
continues
##ubstit
patterned
Electron
solely
Tri
mini
magnification
reductions
sectors
##adzu
sandwich
##I2
Bragg
women
allyl
260
hair
treating
##grade
indoor
Nat
##lide
comprises
##alling
interested
deplo
nucleophilic
Additional
couplings
undertaken
beta
270
gained
##ocking
plasticity
triggered
##idespread
serves
mammal
detecting
##ixed
screw
observable
camp
##−C
microch
tetrahydro
dens
Ap
##dom
GE
##fluor
hous
ZSM
##obacter
defines
minimization
heater
−5
undoped
phthal
##ctive
relaxed
TiN
##GM
infras
stic
ANOVA
shad
bipyr
likelihood
constituent
sear
##version
bifurc
microorganisms
##erve
##lity
International
IgG
Hy
##oxic
needle
MV
bank
inhomogeneous
symp
##day
grows
Shimadzu
Mor
counts
Torr
indium
depleted
rupture
thermodynam
interpl
Laboratory
progressive
I2
codes
##h2
##hole
##otion
##entz
extends
dropped
prevents
##ica
##abolic
##IA
Regarding
facets
tilt
##vin
CH3CN
##oking
##ynthetic
##ogas
drastically
board
Alternatively
translational
ultimately
##wood
nanocrystalline
viral
tunable
##AFS
diagnostic
undes
##analy
1992
##electronic
deformations
spacer
##lattice
##amino
widespread
coag
supposed
guide
anhydr
probable
synergistic
G2
##ethe
bridged
Fisher
incorporate
Char
write
lumin
rend
continuity
biochemical
protocols
5c
t1
##illin
supercritical
Ultr
relevance
delta
Oct
VS
##graphic
templates
t−
boil
4A
##assed
paras
exploited
##denum
Euler
coalescence
Aut
frames
propagating
viewed
##ogens
##iff
3C
vesicles
anomalous
##stein
unclear
minimized
F1
##oplankton
rising
##64
whilst
throughput
carcin
restric
eutectic
dependency
Liu
geological
##L1
freezing
firm
JCP
##assive
requiring
##z2
destro
##box
mechanically
Ed
zirconia
helps
originating
##oe
subsurface
cantilever
clad
##x1
galvan
##uctive
sav
complement
polyd
rew
Ber
noteworthy
France
Whereas
GF
##ogel
EtOH
##BR
automatic
inertia
minimizing
tumour
Eth
##ohn
##∂2
zeta
dropwise
Ly
Ext
##ocyte
clamp
constitute
Hel
amplified
ub
naphthal
seeded
##ui
multiv
diffus
cod
3B
nitric
topic
programming
##igation
EO
mAh
fractures
softening
##urable
N3
##ilized
crosslinking
wafers
sedimentation
##hood
##liers
notable
t2
roots
##hire
##∈R
##ece
art
suit
##etes
shared
ultraviolet
##azing
earthquake
Tran
Mid
Secondly
vessels
H4
durability
sulphur
TOC
exer
Comparison
homogeneity
delayed
##scatter
pull
##A1
##mium
S0
developments
compatibility
##gential
eluted
##itz
##robial
evaporator
##ubstituted
nanostructured
devoted
149
Nu
BR
mm2
citrate
175
variant
cred
##osomal
##itol
##parts
agglomeration
Sample
Yang
Conversely
pun
automated
dominates
elast
moduli
##GT
began
Lorentz
inventory
holding
shed
generic
##62
blocked
monoton
fractionation
Experiments
##aved
vig
tom
##obut
AE
discretization
quadrupole
##rec
switched
10−2
dp
tang
www
insulation
highlight
##ife
Cu2O
contaminated
crus
ferm
titania
erup
lamellar
Import
master
imperf
conjunction
##d2
coke
landscape
evolved
absorbing
FO
##omycin
prototype
HV
folding
responsive
domestic
chir
destruction
tangential
SAM
supercapac
##gas
forcing
prism
vascular
spe
##hmic
peripheral
##oupling
2e
ANN
latent
counterparts
huge
##t2
creates
reproduced
balanced
etch
##72
directional
ml−1
9H
143
##arbonate
##icated
inelastic
##identate
##terior
cascade
linkage
##ochemistry
becoming
elucidate
##onv
endogenous
−4
distillation
oligomers
##anta
##ker
byp
Rad
preventing
ton
realize
##iated
##ait
priori
##omaly
##s2
focuses
##ald
suited
strongest
##dc
facilitates
curved
##osecond
coerc
decided
Far
inducing
t0
collabor
##C6
accordingly
electrolysis
SN
Ak
##DH
protonation
oral
strictly
contaminants
##ona
##ogravimetric
Coll
endothelial
hidden
friendly
##udes
##igm
##ophyll
connectivity
##che
syringe
##DM
##iro
thrust
older
O1
dang
reacting
pad
environmentally
142
##AN
tectonic
penal
null
plasmid
##achi
laws
##ailed
##αβ
141
GCE
determin
enabling
m−1
dosage
Tef
ignored
Arg
##ming
##AA
reflectivity
##68
magnetite
stimuli
dith
frequent
vertex
##ateral
Bar
##junction
adduct
fore
inverted
##ghai
progressively
GL
tubular
Hydrogen
Us
##inetic
IN
##51
file
Method
repulsive
##lab
ribb
falls
format
##sts
ecological
circuits
evacu
x0
tracer
butanol
SMA
ore
biogas
aggregated
##rof
oxidizing
stabilizing
served
Teflon
##ulos
##uristic
anomaly
##erately
monthly
designated
clarify
vertically
aldehydes
cow
spent
mind
OH−
personal
##VE
formic
corresponded
##osine
patch
magnitudes
pole
##P1
infiltration
SPS
##leigh
##hydrate
Shanghai
overview
alloying
Notably
knock
cylinders
iv
intercept
8b
exceeding
striking
ast
Dirac
belongs
degenerate
pilot
inactive
##aine
cyclization
1991
opto
COOH
international
Temperature
Xe
anticipated
gelatin
relies
updated
Ver
pick
physic
anomalies
risks
##MT
1m
amphip
argument
odd
abnormal
susceptible
bol
##iophene
##itter
schematically
hypothesi
LED
##istribution
##hy
glac
conservative
##∕2
drainage
United
poster
beds
entering
bill
##ologic
##ett
lin
tertiary
rejection
ease
derivation
inher
stacked
economy
guidelines
ped
night
##but
NaH
percentages
buoy
adsorbate
decays
fractal
IG
##orn
shifting
plau
##Fe2O4
1980
Technologies
##BH4
xen
##67
selecting
capped
decl
Hum
galact
vortices
diaz
HIV
compositional
Rayleigh
mesos
Inv
backscatter
clock
##vial
optically
condenser
Lake
asphalt
Bi2
μA
##wall
reacts
##inning
installation
lift
Measurements
Reaction
overexp
crown
reads
partitioning
biofilm
dissolving
uranium
##oxygen
reader
gets
ductile
sustained
Higher
micr
conditioning
originated
T0
pressed
logarithmic
WA
UH
instances
coval
drivers
BI
Early
elementary
grav
imidazole
molybdenum
electrocatalytic
protect
##apphire
biore
Typically
jo
shut
Studies
isomerization
##ensification
##azil
infected
advances
Pal
pyridyl
besides
TNF
circles
person
EGF
stopped
disappeared
apt
cav
runoff
##atoms
##unic
microfluidic
##RE
##Se2
emerged
exponentially
##i−
##ceived
downward
9a
5D
climatic
Elemental
1600
nanostructure
##wide
tempor
centres
##ois
harvesting
thermodynamically
Small
##onical
##ailing
fullerene
##vable
##eq
##tm
2S
Gas
proportions
miRNA
##fa
wavelet
scar
frameworks
##ffers
##aneously
extrusion
dominate
July
East
liposomes
rab
AU
Tre
##nt
##struct
##Me2
labelled
Arrhen
##lest
α1
##exc
appearing
piper
routine
##otides
conductivities
−20
divergence
Schott
##alse
superposition
misc
advantageous
termed
train
originate
Theorem
sci
##rocal
intermetallic
permits
compres
##3−
Av
GI
recycled
##85
mineralization
limest
c1
##ami
##k1
##wing
acute
lesser
security
tens
E0
##ura
lang
antibacterial
grass
##aryl
##zyme
certainly
branched
Arrhenius
gasoline
recr
bag
container
mechanistic
Def
LPS
inflammation
reproducible
warming
wound
freshly
CZ
sequencing
DCM
notation
PTFE
passivation
##ava
ubiqu
##ervation
exploration
UC
420
savings
##rate
##ighed
receiver
tric
Tay
cysteine
##rome
historical
##mn
M−1
GSH
##Os
decor
##LDI
meso
utilize
healing
ventilation
c2
bud
TBA
ATR
CdTe
##rowth
Ci
saving
century
immediate
lanthanide
chron
##ool
restriction
Western
June
Al3
Pu
elabor
robot
preparing
influencing
##onuclear
intervention
formaldehyde
basins
weighting
deterministic
helpful
C7
chond
##andem
ensures
relate
recombinant
−12
attraction
Aug
OCH3
sharply
hydrolog
eye
simplest
differently
##orders
Atlantic
cytoplas
1400
##west
ker
neighbors
guarantee
biosensor
capacitor
BF4
sp2
endothermic
G1
Diff
aerobic
perturbations
Fu
Brazil
SPR
eigenvalue
antagon
LDA
JCPDS
##enedi
ionized
manifold
approved
gather
Lee
Ocean
encapsulation
##acetic
STA
adverse
photochemical
##lets
PZT
said
##2π
##erged
##ophenyl
grey
##edge
movements
##entate
substituting
phonons
strengthening
##ometallic
Curie
##quinone
##ometh
resistances
##anyl
magneto
profit
versatile
##ectivities
applies
##urization
homolog
PN
##icrobial
##gram
impregnation
##X2
custom
glacial
photonic
ceria
trifluor
##restrial
Produc
adip
##edical
lasers
PEC
ASTM
ClO4
prevented
##tian
Late
offshore
shield
graphs
arsenic
159
Typical
##MI
##oil
occupancy
rarely
behave
157
##hard
##inges
Phase
handle
##Δt
situated
pumped
labeling
##print
integrals
##F1
unable
##O−
Van
involvement
##astern
Sep
exceeded
nutrients
TPD
##att
Rf
comfort
filtrate
##A2
Hit
tyros
##omit
San
##ensus
fibrobl
milled
printing
##oxides
CTAB
posterior
##hm
men
##F5
sulfuric
harvested
store
introduces
Pac
##fill
belt
choosing
##imuth
resins
##heast
originates
LL
##ilarities
##Si2
ss
contrad
154
PDF
##ei
sorbent
energetically
revealing
massive
##0−
bomb
quar
##izers
##ellulose
exfol
reductive
She
collective
Tl
##urf
##uan
diodes
thermoelectric
binds
triaz
Depending
##erant
nodal
MOFs
heavily
##orporation
spiked
##58
nearby
individually
bounds
manufactured
MP2
branching
DTA
##anar
##3N
Sci
##ospheric
opportunities
sinus
luminescent
infrastructure
wheat
reciprocal
quaternary
Cer
modifying
multif
##ycles
smart
architectures
dealing
insignificant
##oresist
mature
maximize
LF
Port
Taylor
nons
albumin
MgSO4
Ce3
escape
retain
hi
accelerating
MoO3
incoming
MALDI
PAN
sonication
CMC
ketone
aniline
##C1
fitness
rises
##oic
distr
chronic
##uz
##etheless
thiophene
rows
Air
##aniline
##avail
incons
separations
thinner
cured
##eting
cot
seconds
##assic
##uled
markets
Where
muc
relie
##ostr
cohesive
CAS
mor
Time
##ager
beneath
hone
reservoirs
##intill
##arded
##rad
Hb
leach
pile
entrance
compliance
azimuth
Sun
sapphire
##ambigu
310
##oked
isotopes
priv
##rotron
electrophoresis
##ensis
ink
##side
happens
formalism
naphth
buffered
C10
false
EV
accident
Scanning
mutual
sex
340
weighed
##oxyp
Kore
##emia
H⋯
macrophages
##57
intes
anod
Brown
micelle
greenhouse
Australia
corrobor
occupy
crops
##bits
##G2
kid
mbar
separating
##zation
4π
##MnO3
##ille
adult
THz
live
Schottky
analytically
residential
antis
comparatively
##atalysts
facies
antimicrobial
##inance
##arium
piece
compensate
##atalysis
exchanged
ALD
##HS
VB
CaCO3
##∑k
diffusive
How
∂2
d2
cyclohexane
facilitated
152
approaching
##ey
##irection
interd
±1
avoiding
ci
∼4
Initially
amphiph
##izability
closest
physicochemical
yt
GGA
Pres
ecosystem
overpotential
##tability
##went
Third
Sil
substance
##loading
##DT
##artment
paid
β1
##embrane
assessing
passage
skeleton
##articles
dehydrogenation
##orientation
spinning
Cam
chose
interconnected
tandem
R3
mutants
cadmium
signs
##afluor
##war
disappearance
##oct
wastes
##bye
printed
female
##BN
tips
##bre
RR
Ka
superimp
tent
##ocyt
##ildr
minute
plain
##otechn
alginate
artif
cultivation
prost
##elets
bromo
##D2
virtually
tap
##ildren
backward
families
scintill
ESR
nc
##VT
##key
##idents
Exc
participation
##olate
propanol
A3
##imension
Mac
ingr
adsorbents
distrib
Cys
underwent
opposed
##VO4
occupation
polishing
##extr
equatorial
confocal
##IN
simpler
parabolic
lists
##e2
##acil
##−12
hydrophobicity
circumst
matches
PCE
##Im
bead
conduct
cycload
S7
##bling
transistors
video
tape
dendritic
##oupled
EPS
basically
ΔS
C16
mT
dotted
prescribed
org
GN
##ilization
accommodate
SCE
ei
compaction
330
mold
derivati
nitrite
293
##EMA
facing
proceeded
NG
##uctions
income
380
1300
resolve
wash
unambigu
cogn
PVC
8H
autoclave
Debye
States
##sted
customer
DN
##ham
plausible
##heses
##angian
Hitachi
PBE
sent
##axy
##DE
3−
##y2
##onomic
156
950
normalization
compressor
##rest
electrodeposition
##CH2CH2
D3
##awa
HN
additionally
Statis
##ighter
##amers
milk
du
MOS
deficiency
encoding
##hi
heterojunction
emb
##ni
soon
participate
##O5
meaningful
##ony
manipulation
##respective
fission
##utation
examining
##enty
Electrochemical
Wil
potency
fan
##illi
granules
Significant
satisfying
##osilicate
oligonucle
##IL
langu
deconv
pollutant
wise
##actors
2N
mapped
##oto
##YS
##ogels
##utable
annih
Star
##ulum
540
ISO
actuator
facet
macrop
##wan
##BE
outd
Pc
Environment
portions
methodologies
hemisp
##Ta
pyrrole
##gly
Center
ECM
##ogether
consol
GHG
worldwide
corn
Methods
rail
chelating
recirc
rotated
##ita
##59
similarities
today
solder
dex
wake
prosp
regulate
dispersions
GT
dialy
Very
##IV
analogy
UA
heuristic
##ells
crustal
##ographical
Control
March
Examp
##bert
WS
HER
V2O5
##formed
Park
Mich
analytic
bulky
activate
pretreated
##b2
optimizing
##ket
sacr
290
adducts
##K2
precon
##electroly
Quan
hindered
##77
transfection
household
Nano
existed
Canada
2J
driver
Lagrangian
##rane
shale
InGa
photocatalysts
DSS
dich
##fine
##Us
##onation
exerc
151
electrically
covariance
##oned
fired
Those
withdrawing
##T3
##ya
sucrose
propane
rheological
169
foundation
semiconducting
truncated
Espec
dividing
equivalence
transparency
Apr
##oni
anc
Long
terrestrial
TW
rotary
biotin
counterpart
emis
visualized
##inery
extrapolation
cytotoxic
lacking
sulphate
##bi
rural
August
dys
educ
thermodynamics
QC
modest
scanned
stake
meshes
customers
##idinium
Bios
##88
zig
vital
4B
ship
##ipore
##gs
bimetallic
Especially
##oglob
##itte
##unicip
##eling
rating
##aned
Si3
anthrop
Ple
biomedical
Central
153
straw
##acies
drawing
West
r1
stepwise
oscillatory
accelerate
pinning
mortality
Nuss
bos
kN
##through
canonical
GPC
expectation
delamination
##avel
conceptual
concentrate
places
Holocene
subt
##ented
indexed
Optim
ddd
Pet
C0
##olves
characterizing
19F
##−E
##OP
amplifier
voltammograms
prone
discontinuous
##ees
Design
rim
arrangements
##adiene
pestic
ageing
30°
goals
algae
analyse
argued
Bur
TFA
archae
K−1
torsional
Kim
ju
deterioration
rotations
2°
soph
alkanes
Currently
Prof
dedicated
Health
offered
Sept
homogenous
##TM
exclusion
IB
sputtered
manus
storm
Lapl
##romb
##odi
dest
duplex
moderately
separator
publications
##benzene
Importantly
##umen
##ticity
2500
failures
Aβ
card
percolation
disturbances
children
imprin
##ren
MCF
ON
donating
promp
concomit
Mt
termination
Spectro
electrochemically
pipes
gains
##orkers
screened
5A
mess
cd
strept
Den
gi
Silic
walled
Mp
6c
eddy
sacrific
Above
162
##board
L3
isopropyl
notch
##86
covalently
##uous
##arbonyl
cit
532
##∂z
##ora
flank
antenna
glycine
Nusselt
Hg2
OAc
−10
coincides
2k
disposal
FG
##augh
excitons
kWh
nonlinearity
metrics
Pacific
recrystallized
##cine
pairing
##ko
##I3
stripping
##abin
##ilibrium
propylene
firms
drilling
nem
primer
fisher
##han
relating
graphitic
students
receiving
primers
poison
ma
YAG
opened
workpi
destabil
rech
Sa
##kyo
syntheses
simulating
arter
collect
mimic
border
solver
carbonates
ago
diet
palm
##600
PDA
167
phenotype
une
Millipore
notably
performs
Solution
emulsions
KI
thio
##RR
April
articles
micron
Tokyo
##anone
##silyl
biomark
epithelial
incl
##M2
interacts
##cosθ
##ulse
tried
##aus
Current
inclined
##duction
ascorb
September
Fm
##know
vulner
Cl2
egg
##ativistic
Crystall
programmed
computationally
##ivity
pyrrol
PAHs
##ops
##Au
coworkers
manual
depression
optimisation
generators
##sulf
isolate
pumps
compensated
nanometer
Hi
definitions
Materials
trivial
evolutionary
##α2
##SCF
emitter
Varian
pulp
##assing
##asses
1st
MAT
##nes
SiN
equilibration
visualization
inequality
intake
##isen
##cm−1
scheduling
biased
squared
TPA
CH3OH
Apart
Without
parad
dopants
arrows
UO2
angi
CaCl2
worst
constitutes
anhydride
General
disruption
autoc
Africa
V2
##icc
disin
Any
January
fluidized
##nia
photoin
replication
ui
inhibiting
foams
isoprop
engines
slit
arguments
converge
Phil
##ho
coolant
transforms
methacrylate
lived
hyperfine
##lementing
you
##ometers
chips
Large
Test
##urized
15N
010
cities
##H8
Xi
Five
##pro
unmod
enlar
sophistic
conical
##otherapy
##EK
realization
Pan
reduct
1989
##isk
specifications
OL
White
Bal
##ama
##agnetism
n2
azide
##related
monotonic
controllers
license
equilibrated
appreciable
Substituting
##DD
echo
capping
finer
##N1
xj
Ur
polyelectroly
American
coincide
poured
initiator
Direct
##PG
##omerates
Invitrogen
thous
irradiance
vast
##−δ
bifurcation
##ogeneously
DEM
##ought
##osin
relates
Lower
alkyn
bend
SWCNTs
floating
sugars
MeCN
hybrids
photograph
SWNTs
equivalents
dpp
Rig
Details
FeO
##osyl
favourable
narrower
Lou
cooperative
##mol
Prop
anthr
fif
##18O
conjugates
VC
consumers
tangent
limestone
hourly
halide
##icin
##ymethyl
unco
initiate
Company
phosphine
##acetate
formulas
averages
Hart
membership
bundle
turbines
##ticle
young
flames
spaced
plasmonic
Ji
symbols
Er3
##balance
intu
conversions
attributable
turning
Develop
firing
##×1
returns
pipeline
##FM
ferric
permitted
hundreds
methan
tracks
insensitive
β2
biocompatibility
##etron
additions
catchment
phospholip
ferrom
##Me3
saw
voltammetric
##ober
vertices
allocation
neuro
unfav
##furan
triethyl
pend
frictional
CPE
##jk
Mel
preceding
manually
##ranean
ΔV
##idges
##crack
paraff
AH
mesopores
consensus
1°
Detailed
machines
##xp
##welling
update
sch
irrespective
canopy
##hol
KS
SST
inversely
publication
Prec
Likewise
Hep
powers
whereby
shortest
methylation
melts
pressing
indirectly
disulfide
Radi
administered
Kar
shot
##mim
Optical
Lin
##tier
Sl
cDNA
Pen
DPP
Et2O
TEOS
discrepancies
Theore
groove
##ocyanate
disappears
graded
##gi
RM
ketones
optics
summation
verification
Syn
CO3
buried
##EG
trim
##ismuth
manuscript
blot
180°
HSA
magma
imaged
##aka
name
State
##ijing
##itated
transducer
drawbacks
1M
##uded
∂x
##c1
MTT
highlights
##4O
##icillin
unid
##irectional
sho
ongoing
##V2
Synthesis
definite
##Ce
periodicity
##rox
lattices
enthalp
ohmic
shadow
S8
experiences
monomeric
##ouin
##cripts
Wu
Si3N4
OMe
Phe
pointing
##2θ
##a1
SWCNT
##lich
Brill
title
subunit
recon
coars
K1
analogs
transpl
lib
sympt
functionalities
##gel
crater
repetition
controllable
##ISA
medicine
##rance
Ion
MN
doubly
Numerical
##hn
Ny
discrimination
stay
##abilistic
conditional
FB
weathering
incremental
AES
##alkyl
Beijing
inhibits
Tf
##verage
Glu
rigidity
Tur
inev
##yg
Bro
##actic
VT
thresholds
##etic
##XRD
patches
MEA
municip
Pale
versa
exemp
hydrostatic
slide
photogen
catech
outstanding
emphasized
registered
cladding
##COO
TMA
##aku
breakthrough
viol
EQ
capacitive
b2
residuals
##zag
genomic
kT
Mil
conductor
purs
EXAFS
##ellig
disks
answer
slides
carbides
intermitt
forecast
##¯2
Owing
overc
δ13
##¯1
∑n
hydrochloric
breaks
##inson
##ittee
vanishes
Mw
NL
inflow
tune
Hal
480
October
triangle
##iterranean
combines
propagate
##AT
team
wettability
Ps
Power
rabbit
cube
zirconium
delays
##ellar
60°
correlates
monotonically
eu
simplify
##pin
##onent
detrimental
microalg
Tyr
##opyran
stro
workpiece
##harm
enters
interview
##ray
acknow
##idase
Ve
##umm
##yer
9b
hepat
Italy
##HH
##ycomb
166
cycloaddition
microt
outdoor
2nd
##kew
triplicate
31G
acceptance
annular
pocket
DMEM
##aria
resusp
Mediterranean
dihedral
##lite
##osols
VEGF
unmodified
Lys
epis
Nonetheless
Integr
##reed
naphthalene
##92
substitute
SO3
10a
photolysis
severity
Experiment
detachment
##LAB
horm
Chrom
enfor
##aser
neutrons
presenting
##estr
pec
conditioned
PSO
CCSD
tightly
##p1
Lip
Appro
redistribution
##sibly
strained
neighborhood
vice
worse
coexistence
tetramethyl
##82
##anular
Dev
##76
differing
Brillouin
solutes
##idines
regi
cable
lands
welded
##ypt
aquifer
Corporation
superconductivity
coding
nonc
signatures
displaced
hemic
trigonal
##AB
engineered
Protein
##rd
blu
sophisticated
##retion
possessing
densification
##ael
Compounds
Pur
counted
latitude
##ych
C11
cotton
stimulus
bioactive
brack
##iled
develops
hexa
resonator
silane
colored
dissolve
sinusoidal
##UV
mann
constructs
reality
kil
carbohydrate
chirality
forecasting
cardiac
##ω2
cavitation
glove
resistive
Spain
crucible
##QDs
mitochondria
agon
observing
cyclopent
herb
chaotic
flue
Plas
turnover
projec
augmented
adapt
λ2
mand
##ylamine
integrate
sake
##4N
discontinuity
ingred
Rs
columnar
##kT
circulating
emergence
##aded
wavenumber
MJ
##zero
neuronal
##amides
olefin
##iller
Phys
behaves
persistent
homo
##π2
kidney
clearance
##apt
deuterium
NaBH4
##gers
plating
measurable
Material
chromophore
representations
manifest
TiC
025
QW
nanosp
perchlor
##oric
Chlor
km2
meteorological
soy
RL
T3
apoptotic
conformers
InAs
chalc
severely
obli
##aint
flocc
decompose
leuk
##ota
rivers
UF
##tidine
unw
FTO
##D1
mu
perceived
pyrite
inexp
functionals
superficial
225
3×
establishing
FAB
emphasize
Swit
##inities
Image
secretion
##ethoxy
correspondence
SVM
Maxwell
protease
m1
protecting
##phenyl
prehe
manufacture
altitude
probabilistic
probed
chemisorption
##94
polydisper
η2
linewidth
Middle
strips
priority
##icate
MRI
##mission
heme
Cret
regulations
FBS
upl
hereafter
pollen
Gene
coagulation
Qi
Yb3
Jac
PLGA
indole
##mid
division
##RI
seemed
MAP
##olor
Pb2
skel
##article
carbonaceous
assist
converter
thaw
accumulate
PSD
penalty
fluorinated
Tai
crosslinked
oligomer
1988
John
Contr
IFN
distal
##troll
notion
##holds
##aric
##aceae
Vi
530
b1
p1
electrone
specification
redund
Newtonian
exclude
Below
discharging
##itational
5×10
dating
H5
peculi
budget
degassed
skeletal
Work
SOFC
geochemical
##≥0
octahedra
language
##ochromic
consumer
incen
MIP
HRP
calorimetry
hypothesized
researches
Corresp
diminished
Auger
bipolar
unaff
opin
Part
unloading
transloc
Actually
nond
Swed
##ogly
Lim
##ski
520
instrumental
##HC
rf
emphasis
kne
##ira
##yle
Peak
DV
acetylene
zigzag
chlorophyll
intercalated
5B
peroxid
ald
docking
##robenz
distinction
honeycomb
dele
supplier
DOC
transfected
dates
##Cp
December
##onyl
hindrance
Obser
1e
CPU
inclination
sequentially
TPR
reviews
##otrophic
rhomb
hydrochloride
##cano
##itory
tBu
lad
##atum
fluoro
Reag
biology
anticancer
arom
subunits
Ms
Prov
assignments
melan
degener
mammalian
RMSE
##fs
163
shaft
excav
##beit
bidentate
Particular
COP
ridge
degrade
viz
##omon
leave
##agi
motifs
##zes
Korea
##eptides
161
##87
sp3
Usually
acceptors
Run
##asted
biologically
geothermal
protr
transistor
UT
skew
increments
variational
tow
rs
##athe
lean
Kit
##erves
Cretaceous
differentiated
Six
##obi
Later
imine
youn
unreacted
contours
explosion
mJ
bear
agreed
instructions
distortions
penetrate
periodically
##thane
Nic
chambers
successively
ELISA
##isite
##egradation
PLS
LiCl
magnetron
biosynthesis
##120
multivariate
##unt
unaffected
constructing
Solar
adher
##aper
settling
demonstration
ero
##ocr
##ications
proves
reb
Natural
rigorous
##aspase
AV
OCH2
164
##uty
##eled
discharged
occasion
refluxed
Louis
graft
tyrosine
adequately
interests
agar
Appar
looking
MIS
Systems
FES
##BI
thym
corners
STEM
nitrop
refine
bilayers
hypot
buoyancy
##ZO
nucleic
sle
transgen
##esthe
RN
Mach
##ritten
NaHCO3
Cd2
##QC
##ifor
Eu2
##adays
dipol
##athin
lighting
##ulator
economical
I−
inertial
316
Yet
private
bir
440
photogenerated
##ospital
##ryth
ellipso
##etting
oscillating
##craft
melted
brick
inexpensive
##lips
Creative
s2
positioning
experts
JA
FITC
Solid
tropical
grew
##Am
SWNT
dict
cri
thermocouple
DLS
##bridge
##lated
Fer
wherein
STO
pat
1970
hardware
alternate
##actory
transcriptional
interplay
gelation
pyrene
Pow
anodes
Spr
interrup
Asp
##va
hematite
acrylic
choices
##kBT
ses
##abs
households
prime
ECL
PCBM
##enton
##riting
Arc
algebraic
phenanth
volatility
##AP
Philips
subsp
America
ΔP
biodegradable
Values
regulating
BG
placing
##ifiers
##vinyl
pits
##rosis
SAR
relativistic
pus
##methyl
3°
C14
mountain
disorders
##ceptions
cleaved
##¯i
##t1
##2N
##pon
presentation
##ochrome
##arg
diabetes
lysine
fractured
thermogravimetric
##gens
execution
cathodes
freshwater
SCC
linkages
##ographically
Δx
falling
Commons
Light
xy
blended
platelets
##emma
Disc
D0
unfol
infin
FET
∼100
##¯0
summarize
gear
211
fi
drinking
##cting
recoveries
discussions
insert
expert
ti
COS
nonzero
filaments
retrieved
justified
Cart
Waters
lone
layout
oliv
capacitors
partners
monolithic
##onom
MEM
Ni3
wedge
ranking
##vest
Analytical
xylene
##83
letter
##iguing
abstraction
kBT
worked
valves
HeLa
sensitized
monochromator
M3
254
implied
Notice
duct
##74
##≈0
isos
entities
multiplied
photoelectro
pist
silyl
MU
##haus
trained
evolve
##ena
shaking
##Tc
surveys
stretched
entanglement
1987
Cat
smoothly
pKa
concomitant
synchrotron
##ulant
##ulosic
λ1
therein
Magnetic
freely
tilted
circumstances
##rene
Use
##kh
bcc
bismuth
thinning
polysaccharides
##nsted
dol
microporous
disadvantages
##BCO
Dynamic
schedule
Concer
alkylation
spiral
p53
##D6
##amines
f1
##omas
guided
Milli
routin
deprotonation
twist
optoelectronic
convention
Michael
##onge
sap
remed
A0
##sity
##ophenone
scienti
compromise
a0
arms
twinning
Last
##icyl
##eph
##×100
ally
slabs
synthesised
rolled
repeatedly
kink
##odamine
alterations
TGF
von
##ject
monodisper
heterocyclic
LCA
sy
comprise
##activated
##occup
antibiotics
SrTiO3
VOC
connect
##otive
submitted
##otation
distinctive
##imidazole
##alities
strike
TMP
desicc
##oplastic
recharge
superimposed
exciting
MMP
polysaccharide
##EX
eigenv
##lastic
##cein
##PF6
Pack
Human
##una
laboratories
expanding
∂t
ambigu
##ca
magnets
reading
preservation
lime
fifth
##MD
nucleoph
ethane
nucleotide
##−k
1986
VG
##COOH
intellig
bundles
LV
##SH
overlapped
sew
##ilms
symbol
Polymer
##holders
##84
discretized
P0
##ressure
exempl
bid
##ova
UP
λmax
Flow
##aign
albeit
sensitiz
14C
phytoplankton
biomolecules
semicirc
##ropylene
aquatic
alloc
gravitational
SK
labels
Oe
collecting
optic
##≠0
##omorph
radioactive
undergoing
Prot
hydrazine
SEI
Department
blow
Y2O3
undesirable
##lements
Ant
monoxide
Gmb
##iae
##emission
##ament
##itron
pyramidal
BO
TCP
brightness
##oxys
Ti3
stagn
nanob
##Th
agglomerates
10−7
Califor
adopting
DEA
##ida
harmonics
anthropogenic
##ML
innovative
Du
Ter
sparse
2m
valued
Good
magnetically
ω2
Indian
##imensional
POM
incompres
##sum
SIMS
oceanic
tower
divalent
fruit
biosensors
Rigaku
establishment
agitation
LOD
ferrocene
synap
excluding
implementing
172
discern
Hor
##BL
lithography
remainder
stressed
renormal
deploy
aure
μ2
Ea
Tp
##rocytes
PM2
centred
BaTiO3
MOD
colloids
Che
irrigation
syngas
##69
Field
propyl
annihilation
370
classifier
##occupied
obtains
##veld
classic
gross
depended
1800
##NK
dependencies
acquire
##osures
keto
##harmonic
Life
##ociation
eryth
thanks
pyroly
ascertain
pyrim
Teller
serial
retail
ont
1k
disadvantage
accidents
ineffici
##luids
favors
inactivation
nanoclust
##ophag
poli
aircraft
##arboxylic
Pure
##change
V1
2R
DLC
signalling
##ovalent
exchangers
expense
##eman
dT
laminated
2017
subtracted
δ13C
ensuring
micellar
watershed
##icking
assemblages
feat
##ophosphate
females
##arity
resembles
finds
replicates
##CE
##ensitic
SAED
dipoles
##ylon
acac
pond
Island
Extr
innovation
##sch
ai
nanorod
SCR
##79
173
Fin
##−4
kr
phosphors
differentiate
##aque
cytokines
California
##H1
ppb
cited
##iger
Ax
σ2
##entration
strands
refrigerant
releasing
Sr2
Metal
238
wing
supercell
arrival
instabilities
ultrathin
##fit
##ima
Graph
impregnated
##stones
thromb
Newton
##oo
Tb3
exerted
polarizability
WW
seasons
##orously
##arose
##200
Engine
fetal
meeting
institutional
transfers
synth
##orable
reporter
recall
##bul
##por
GmbH
sole
365
passiv
cognitive
##UR
##S4
LEDs
4°
Hub
diox
trough
alkyne
##TF
think
upreg
LW
heterostructures
lev
##vier
basement
Heat
325
##ried
restrictions
alle
came
subtle
J1
Nether
Cross
J2
breakage
##neum
selenium
Gold
Pn
inacc
Nove
rms
171
suction
ecosystems
Conv
##iform
algal
ahead
neck
couples
##aro
hydrolyzed
groo
VR
transcript
platelet
aud
destructive
chromosome
yi
1J
Ku
illuminated
histogram
brings
dm−3
APT
stroke
p2
polyg
##bean
CYP
neighbouring
reporting
spike
suitability
##unk
cp
sought
##lides
ideas
rewritten
##Cd
e2
receive
fungal
R0
motivated
Starting
silicone
ferr
extrapolated
##allo
unoccupied
##idel
lipase
Algorith
happen
broadened
segmentation
Statistical
Fenton
campaign
Linear
##5O
opens
unsu
surp
##bur
nanofluid
##osphate
##la
ZIF
##HF
differed
operates
sphe
platforms
homogeneously
convenience
flakes
uniqu
##sil
immunos
organs
aerodynamic
planned
fails
justif
nort
stems
trifluoro
formate
trypsin
surprisingly
##tan
desal
##mber
multim
Future
##Hg
##pyridine
converged
##crystall
anchor
Sections
MgCl2
halides
mitigation
superoxide
blast
##quist
##81
Spectra
##ohedral
encomp
assim
TEA
prevention
logistic
sputter
ing
rt
tables
##iotic
adoption
Schiff
##−N
determinations
Fluorescence
amphiphilic
recirculation
tunn
switches
tell
284
tons
rear
nod
triphenyl
Com
repeatability
##FCs
exercise
magmatic
corrug
fibrous
##agnet
I0
##ixing
cyanide
##usions
preparations
##93
710
##bauer
κB
##ibria
Concerning
mN
sewage
yttr
taut
subd
adjustable
sad
LiFe
Transmission
recognize
##olite
heptane
Multip
CD4
##hardness
tended
Landau
QM
##ophil
panc
My
martensitic
Program
AMP
luc
phyl
RHE
##pe
chromatograph
proximal
November
##hydroph
citric
paired
Zone
2σ
extracting
speciation
##erson
##istocene
sunlight
enlarged
##n−1
fixation
430
##TG
olivine
##rocess
##quilibrium
Q2
##opic
preserve
olefins
GPS
evaluations
##prisingly
discarded
##ister
δ18O
stacks
cages
returned
suppliers
attenuated
Netherlands
topographic
impair
Santa
y2
Afterwards
##ophenol
Region
Triton
projections
Along
##arctic
simulator
injector
##oping
pentane
µg
cyano
Ai
micropores
MIL
borate
metabolite
VP
hazardous
enthalpies
perturbed
homogenized
##CR
duty
accessibility
placement
##agers
##aton
##rock
habitat
##Kα
systemic
smoothing
Introduc
winds
Pleistocene
volcano
osmotic
chance
##utor
ts
##rophic
Process
possessed
##yy
cerium
isop
word
paraffin
##local
omitted
##men
C15
discharges
shearing
liqu
Tit
formations
argue
taxa
perception
011
##gery
Arab
feld
generations
Examples
denitr
##kes
abundances
arene
neuron
nanospheres
lipophilic
fibroblasts
subtracting
slices
respondents
Southern
##anck
earthquakes
2100
VO2
O2−
coercivity
BOD
folded
hypotheses
pct
10°
Ki
##ulfate
Cartesian
plotting
##etra
Boc
n−1
##vol
Tol
tether
reorgan
jets
##steady
M0
viewpoint
CX
∼20
pg
##ANES
##EN
Subsequent
fishing
shortening
apatite
##occus
defective
illustration
256
flooding
RES
aureus
vein
C20
##NIPA
grouped
push
dependences
nic
mm3
##∂r
fringes
##NO2
sccm
peat
aerosols
999
intention
##orrect
##arine
##ibly
colloid
4C
descriptors
##NH3
##ergic
##agger
preced
Arch
Combining
turbidity
##iber
##ource
piston
retrieval
Scher
Remark
credit
Switzer
1T
r0
exponents
X2
Az
CAD
Previously
##uclide
003
Dav
Prob
promise
Riet
PMA
##acin
reversibility
databases
##sinθ
H0
facilitating
interatomic
TPP
nevertheless
Wind
caspase
##odextr
polypropylene
aliquots
##urine
peroxidase
LN
diol
Ala
postulated
##u2
FESEM
implants
characterisation
Switzerland
12H
7c
u1
Out
##×10−4
nematic
IPC
##ube
##iratory
really
##rer
outper
195
C9
forests
212
##tot
try
boiler
cartr
conformer
consequent
Environmental
photoemission
monoch
referenced
Quantum
Cm
antif
myc
lock
globally
MDA
TK
bow
##uron
dendrimers
##spar
Yellow
##CH2O
##brom
recruit
agriculture
Infr
garn
##ipitation
F−
##lock
hydrogenated
Trp
lique
Treatment
##scrip
subduction
Gram
##enic
equilibria
1985
pc
appropriately
PSA
dissim
cake
scientists
2E
sublim
subsid
Jones
Hc
##és
views
subsystem
indenter
460
emulsi
enantiomer
##phosphine
XANES
##ards
dimeric
CH2O
Huang
fungi
##othi
##gative
Development
chelate
##CoO2
HfO2
##PL
wax
##Oe
harvest
explaining
scavenging
regards
gram
trem
necessity
exploring
minority
Ic
infections
##oxyc
slice
tk
##oke
PAGE
Particularly
##irus
BiO
antibiotic
##yclohex
##param
SEC
Cambridge
nanod
au
compressibility
##achlor
##rolog
lakes
Nam
clays
##osh
FCC
Imm
sandstone
##yi
resc
MK
multilayers
Rietveld
elucidated
EDA
xk
n1
orific
electrophilic
mouth
##300
Structural
##ypsum
Sk
lap
RhB
Gel
esterification
##duced
##prop
Mö
twisted
dimensionality
Bre
flavon
coils
##diff
Otherwise
##±1
longest
2s
##M1
NK
Laplace
wur
EBS
coh
biodegradation
sheath
interfere
285
##NH2
Having
digested
sonicated
##λ2
##etermined
Her
CDs
Wor
files
superhydroph
##C3
##teins
PDI
concave
##athione
##chem
##uries
oxidase
C13
##500
achievable
##faction
Fluor
restrict
sperm
PPA
folds
6000
stakeholders
##sal
assemble
##amid
males
Glo
incorrect
V0
dynamically
dinuclear
##station
descriptions
##hydrox
deprot
explosive
furan
##bb
##imine
mica
hydrophilicity
Methyl
##idone
pregn
MMA
##obile
generalization
portable
coordinating
quasip
Har
##ians
transients
NMP
patterning
reven
laun
μB
##O1
##−n
##ijk
bun
μ0
##∑n
B4
associations
niob
##anging
X1
exploit
##acrylamide
superconductors
rip
ECA
Open
polyure
##ola
InP
obstacle
intestinal
##icit
allevi
##ocytosis
Rus
recommendations
uk
doing
mine
Mad
unsteady
AgNPs
logarithm
relief
promotion
##S1
IU
##ogl
375
015
Ein
transporter
isopropanol
intriguing
DME
##umor
spontaneously
perfor
vitamin
##annels
alkenes
lump
Instrument
##j2
##aste
bombard
iω
packet
2020
PLLA
##q2
smoke
##anner
##opolymers
Bayesian
vigorous
##H10
##iner
tomography
default
##ogeneities
agarose
embedding
##PM
macromolecules
rhodium
guidance
Anti
terminus
decoupling
FEI
Cel
4H2O
10b
epoxide
eliminating
modular
##availability
Applied
hr
##rogenic
##ival
traction
enantioselectivity
gravel
cosθ
marks
Plate
dominance
Surprisingly
5C
##UT
symptoms
feldspar
regenerated
blending
##S3
Sin
REE
pigment
optimised
fillers
EH
##ularities
Cr3
uncoated
410
##∂T
Taiwan
##orrelation
##esterification
repeating
batches
collectors
drought
C6H4
Cap
foreign
keeps
Pos
MPC
enantiomers
Tan
questionna
sterile
displaying
Pyr
##hot
restoration
##LCT
d1
glycop
IE
##f1
Between
chromophores
##ocarbon
##MM
Reagent
##ovascular
viruses
que
forb
Oxy
copy
Np
clouds
preferable
sout
k0
Approxim
##group
actively
TFT
triangles
quench
##iti
Kel
book
SAXS
roug
depar
ascorbic
206
converting
##enesis
want
delocalized
threat
B0
Upper
packaging
##orill
lyso
invasive
burst
##jug
assemblage
problematic
femt
coals
nanoporous
About
##aday
abrasive
homogenization
origins
Cn
zw
Zeiss
##NF
discs
taper
##ipl
observer
##space
tailored
azo
303
recur
metamorphic
##ferential
statement
sigma
acted
##olinite
microchannel
latex
FRET
##LL
standardized
merely
MFC
aliquot
K2CO3
proposal
470
##atern
##granular
evenly
coincidence
##omatic
##herical
terrace
##−r
silanol
triazole
f2
cheap
migrate
##dW
dendrimer
##oglobin
inhomogeneity
projectile
primitive
##esters
machined
hν
Bor
##oning
tooth
son
APC
##urance
##ener
In2O3
cracked
immuno
##−i
##2S3
004
destroyed
superstruct
stranded
275
##adequ
##environment
mononuclear
discl
##uronic
monoc
bad
##areto
##enediamine
neglect
##ochar
photosensi
hydraz
##IST
regulator
delocalization
byproduc
304
loose
colonies
##BO
supersaturation
vanishing
Applying
##β2
spark
CHO
Top
tract
psych
##vision
GG
stopping
cem
compete
GDP
##anion
Character
antit
C6D6
approached
imidazolium
SPI
interfering
pave
unambiguously
compartments
osteobl
Microm
##lexes
##ua
ethers
Hex
##activ
SY
##beck
FRP
perox
knee
3e
crushed
unfavorable
##LT
Cz
trifluoromethyl
gravimetric
incompressible
Asia
pharmacological
488
6°
Dig
##metic
ABA
##using
Pharm
##afts
##FeO3
purple
altering
1984
versions
dissociated
Voc
alkene
coat
harmful
11a
Brø
##itary
capturing
##rep
chalcogen
Ol
modifier
##chrom
dwell
deprotonated
silt
##Ni0
##idic
catalyze
##Tr
synchronization
atomistic
exploitation
scho
Particle
##−m
tensors
##E1
acad
##×10−3
235
epitaxy
##cooling
SNR
jumps
TX
##rag
Febr
meters
η1
RSD
cytosol
electrospray
8°
Adv
mission
degeneracy
IO
176
##ostics
correspondingly
Vo
February
Maximum
billion
NRs
Gulf
raise
##ococcus
emerge
magnetism
deals
Class
Algorithm
carbene
facts
2P
adopts
##unov
6A
ze
obstacles
##iable
nitrobenz
177
ecc
induct
phthalocyan
carcinoma
permeable
##−O
ha−1
AlGa
gun
trypt
reuse
BPA
broadly
tetrahedra
Brønsted
##otechnology
waveform
fluctuating
ration
seal
1α
encoded
asked
resuspended
gem
microalgae
##onian
##anoic
carbohydrates
Sciences
Pseud
exogenous
chlorides
phenomenological
Esc
AK
centrifugal
multid
airflow
##ssbauer
preferences
walking
broth
Soft
##fig
Δf
HEP
Abs
Taf
combust
##omponent
q2
Nyquist
##g2
dipping
−78
##silane
2f
bombardment
decorated
##eratures
##×2
Suppose
exo
##iltr
Cyclic
coum
foils
catalysed
##n1
searching
nonm
Color
Cho
##hao
273
palae
dodecyl
demanding
##123
##aki
conflict
periphery
v2
Inf
inadequ
lactate
##tric
##ogenetic
##versi
ω0
actuators
sulfides
hexanes
modulate
Kir
##Co0
stratigraphic
Major
##E2
uplift
offs
mineralog
renal
##ubes
##iously
Crystal
3p
C6H5
younger
stratification
physis
Sign
polymerase
heparin
222
bioreactor
POS
enorm
##X1
snaps
respiratory
jack
artifacts
genus
dominating
##erative
tanks
LSM
Mn3
td
##roline
Cas
specially
##urnal
drives
Pot
bottle
mobilities
##imm
finished
Pareto
blo
breath
r→
contract
impulse
quarter
colle
Chemicals
dioxane
h2
symmetries
##yness
activating
merit
u2
##oretic
bimodal
H6
BMP
colony
2p3
cytochrome
fum
hydrological
acrylate
contaminant
positron
BZ
x3
gent
vaporization
Letter
sprayed
##entation
##iazol
plated
transesterification
##ondon
##apes
pione
spanning
1S
tn
deoxy
pneum
I1
eccentr
maintains
Log
##−y
submic
inference
coarsening
Unit
DSSCs
organometallic
assessments
manure
stirrer
claimed
sure
outflow
##ofl
Committee
Emp
radar
nonlocal
putative
subsets
probing
constituted
seeding
PNIPA
##thiophene
neglecting
pesticides
##oxia
xylose
photoexc
summarised
Atomic
s−
landfill
desc
superconductor
oxalate
inferior
1050
polyelectrolyte
NHC
Local
suppose
photoinduced
G0
##cm2
Infrared
##lit
SAMs
ensured
brush
political
Care
replicate
Fo
broadband
confining
enol
d−1
RuO2
strategic
pigments
manage
proc
sup
sky
merg
tiny
economically
profiling
##oule
embryos
calix
mentioning
employs
evacuated
2h
triethylamine
##oli
cortex
##ek
##Ir
barium
##ivalent
biaxial
##Gd
gallium
reproduction
Intr
##vae
Consistent
10−8
Kal
sieve
stabilities
##afic
sublattice
fruct
Coun
guan
##400
aptamer
overexpression
mould
centroid
makers
exert
lactic
1R
unbound
oc
ρ0
linearized
DMC
gypsum
tabulated
vent
glutathione
Simp
derivatization
dryness
nanometers
isobut
surgery
##unnel
enclosed
deviate
185
Organic
assistance
manufacturers
Param
monos
accompanying
FFT
writing
SHG
capsule
##t0
racemic
burner
intermittent
carbonization
speaking
laminate
##raft
Ei
tetrahydrofuran
Glc
respiration
v1
alkane
photoan
singularity
##waters
##otherm
closing
Near
##α1
##OF
succ
inductively
MSW
##ondens
hydroxyp
advection
evolving
JSM
##rost
locate
##robe
deletion
ASA
sket
export
hypert
##uki
Alex
S9
phosphoric
profound
graphical
ripp
influent
inherently
Laboratories
subdiv
##burg
Pf
AQ
exterior
allylic
La0
dissipated
saddle
polynomials
##ocard
##V1
lamellae
##imolar
estimations
photodegradation
exposures
margins
Spectros
##pa
floc
succession
hypothetical
plans
CD2
hierarchy
##apsules
capsules
Tafel
Fluka
preval
nanofluids
femtosecond
maize
trimer
heavier
managers
condensate
##ville
lose
polyvinyl
inspired
Corp
pu
quer
TZ
##oclase
##ago
##zi
29Si
weigh
Set
scarce
##mi
cultural
biphenyl
oxygenated
##H2PO4
anharmonic
photocatalysis
durations
JEM
predictor
ZnSe
Freund
affinities
poisoning
##eno
Rob
giant
##FETs
montm
stimulate
tagged
flasks
forth
##layer
LiF
##aco
stratified
##SCO
BW
##atid
##weight
executed
entrain
strengthened
grooves
Law
organics
obes
C2H4
microem
##iso
4−
processor
electrospinning
formally
springs
##ander
ribbon
aware
##efined
WI
sque
flip
supercapacitors
hcp
outward
lane
spur
##holes
Corresponding
##olymer
##obacteria
ellips
MQ
endo
montmorill
##leys
##s−1
synd
phenols
dissimilar
Simulation
determinant
SSA
cartil
hyperb
education
Hen
glu
dangling
pseudop
##ivers
inconsistent
##oxysilane
##oresistance
µM
geographical
oblique
costly
enterpr
flatten
microhardness
SCF
Amp
textures
ABC
Nitrogen
Apparently
na
simplification
medicinal
intrusion
##utyl
satur
##wind
cooperation
carbox
blades
kaolinite
clarified
shortc
fabricating
##roups
nerve
crystallography
##olab
Laser
deployment
populated
reef
Hill
##t−
CoO
succeed
confirmation
obe
MMT
perchlorate
##antation
##opath
butyr
powdered
1−x
recons
colors
achieves
muscles
motivation
##carb
##ourea
kb
organizations
##therm
##with
##ret
##coal
penicillin
locus
regularly
forbidden
adults
incorporates
##dz
##Ci
wavefunction
trichlor
Quantit
distinctly
textile
##ollen
thank
subscript
seam
progen
7°
behaviours
superlattice
aeration
##89
560
circumferential
dopamine
hosts
MNPs
##loaded
latest
##aline
terrain
174
P25
granite
wrink
pharmacok
absorptions
chart
presently
MIC
Numerous
ct
##platin
bipyridine
##ithium
electrospun
thereafter
fulfilled
evolves
deuterated
##TE
Except
fate
weakened
1700
Simultane
proposes
slot
Taken
Changes
indexes
kinetically
zo
boost
translocation
Brun
illumin
strata
injections
African
thermocouples
lysozyme
poles
iridium
##mh
##inine
vision
surrog
DIC
##−p
xn
alanine
elliptical
##Sr0
reasoning
prohib
inoculated
clamped
−i
aberr
pose
refractory
photodet
Black
D8
570
converges
anchoring
Faraday
Å3
##ondo
Mex
##particle
unequ
stone
Lorentzian
Ham
Together
Vs
##HE
##tzite
azimuthal
##ysi
arbitrarily
twins
T4
cytoplasm
Powder
Acet
licens
purged
zwitter
asympto
bicarbonate
Gi
CK
humic
LES
Mott
id
society
AgNO3
imprinted
LiMn
ATCC
##inging
flange
##CHO
rhombohedral
jth
##omonas
submerged
Xu
labile
231
Markov
nois
##−∞
##Br2
HDA
Mössbauer
##lattices
readout
fundament
automotive
Sweden
##obor
qubit
preclu
VL
##zh
estimator
COO
##ype
coc
EW
micrometer
mons
recycle
Fi
dated
2F
refrigeration
pictures
misfit
##iferase
##m3
##ories
diabetic
HY
Na2CO3
##03
anchored
interferences
lignoc
##eri
##TD
204
##apunov
restored
World
catechol
cryogenic
vorticity
Navier
##prin
depositing
##osited
C22
entered
Gy
Brownian
##Fe2
Jur
EBSD
capill
Ko
nanoclusters
Specific
selectivities
##asse
garnet
ferrous
hepatic
beach
grazing
Foundation
##SO3
hybridized
isolates
calorimeter
kx
CHP
flower
##v2
underestimated
y1
gathered
Tween
Wall
abilities
desorbed
##fi
##za
Average
Cr2O3
PPV
##2O8
20°
XL
equi
##oven
1∞
mixer
sorting
##DR
##Ba
0≤
borehole
SOD
orifice
subtraction
##actone
zer
archaeological
390
normalised
CuI
utilizes
SQU
seques
510
cancers
recruitment
4e
dialysis
295
ling
##tage
##Sc
biofuel
ridges
vesicle
microcrack
intensively
Scherrer
##omet
eco
512
addressing
FeCl3
limb
sidewall
monochromatic
2×10
ACN
##uchi
μm2
critically
Centre
eruption
suite
retro
##VS
crash
assayed
heterostructure
UHV
retaining
##μν
##iar
Mn4
Differences
MWNTs
intensi
##roll
##2O6
6d
##CF
ov
libraries
Lemma
LiFePO4
##vs
OER
cyclodextr
oleic
preserving
housing
collim
GST
depositional
##apure
##transfer
##uccess
moreover
multifunctional
2400
sandwic
Anne
##uent
##PW
Oxygen
prevalence
##ado
s1
H3PO4
colorimetric
##−c
rated
Lyapunov
preparative
##heastern
fluvial
hope
unpaired
programme
Bul
##uric
Rich
impaired
Diffr
lesions
cortical
fabrics
trivalent
mother
aiming
district
x∈
lowers
##−d
sulfonic
##l2
−6
ready
∼50
Qual
cloth
##cooled
opinion
σ1
Jacob
deduce
Indus
fibrils
##Py
linkers
Sodium
opt
Miocene
z2
ba
crow
dV
cycled
##roportion
##orosity
electroactive
1β
FIB
extruded
τ1
incompati
dolom
##auc
eigenst
pectin
formulae
##factor
titanate
Ba2
##oman
Rn
Sand
αi
Thin
tails
FN
rm
footprint
Continu
maturity
terraces
Smith
basicity
Q1
crystallizes
CNF
Fock
plagi
##Be
012
##800
fringe
##tide
MATLAB
loos
flotation
Theoretical
substitutions
##taining
refraction
vanish
silk
##Nd
##1000
larvae
Down
superhydrophobic
game
pd
autophag
##ppler
cytometry
##LEDs
##assemb
ruled
OF
##fc
multiplying
steadily
HK
##ynyl
##titudes
k−1
settlement
dichro
wurtzite
##vised
Plus
##acillus
instrumentation
stir
5H2O
specify
##ologr
##atal
textural
histories
reinforcing
disag
aromatics
##SiO2
##GD
visually
##tina
rounded
nA
superhe
peculiar
1r
##enesulf
conductors
−E
discriminate
sided
##umes
logical
##ache
shore
##σ2
cooler
HZ
207
cord
resemble
##wald
supercapacitor
Lam
Transi
infiltr
Chl
clarity
End
distant
##OA
antiv
EPA
pz
ribbons
cartilage
##NOS
VF
##erometric
biomarkers
##uels
expectations
##atever
liquor
cultivated
rhy
F3
##omics
erg
##gestion
##vian
buffers
SHEL
1010
##m1
CNS
##hrm
##ori
580
bottles
Delta
tremend
synchronous
cave
##anche
salicyl
##ér
1983
##ontium
##wareness
persistence
soybean
mathrm
oligos
balls
##inator
furthermore
municipal
Leu
sandy
TRA
plut
##agraph
maturation
##uj
glucos
benzaldehyde
montmorillonite
##amycin
π2
1×10
Ever
APS
##CL
enantioselective
fores
##ashes
handled
##otr
PZ
dz
autocorrelation
##olarization
##icities
ESC
Td
mitigate
##alian
##ativity
diffused
##acetyl
##ahn
spind
Camp
##points
Pin
1E
##angle
##WA
Ten
Kh
##Mn0
kB
σ0
diamine
mixes
Perm
aval
##3K
getting
timescale
12a
##ows
Alfa
Seebeck
##atched
Nr
axisymmetric
TU
deline
##ophan
anterior
clones
nanofiber
Freundlich
Dou
chromatograms
6B
Serv
malign
socio
ki
WE
dimerization
Mann
HG
photographs
205
FID
Bri
visualize
rejected
##ensurate
##uing
Alk
##iferative
fur
dl
fluorophore
prere
Δp
MBE
lysis
##orptive
backscattering
−Δ
##apatite
adatoms
amongst
pathogens
allu
Engineering
cardiovascular
serine
virgin
spraying
Benz
##AR
documents
multiplication
transgenic
490
quadrature
paradigm
##isations
Post
intim
Antarctic
##Rh
nanocrystal
Main
18O
660
Northern
##bing
activator
−k
invasion
Einstein
##olecule
oxidize
PbS
amides
squee
##iently
avoids
##assay
apical
##omorphic
##tinent
L−
smoot
##oxyphenyl
polyt
poros
##bard
arrive
crossed
Emission
reliably
textured
##uning
188
K3
valleys
193
CuII
assembling
dehydrated
propagated
1982
declined
bird
investments
pel
##borne
lined
##⩾0
Liquid
tack
1960
trust
##block
Rock
KL
##iler
aster
balancing
pillar
debate
Constr
##graphy
prevailing
sponge
answ
leachate
NADH
supplies
C17
HCC
minus
1250
ballistic
scratch
##formamide
##ethiol
sensitivities
hamp
biases
##dV
cementi
333
MSCs
spp
##−α
##arri
hoc
Stre
carbonation
sorted
##Al2O4
∫Ω
danger
ubiquit
manifested
Ang
tetrap
Multiple
transmembrane
NADP
Jos
exfoliation
zi
dehydrogenase
##psil
nonequilibrium
paint
##ugin
##∂x2
##akis
sorbents
enormous
nav
favoured
allele
Ky
stagger
cisplatin
Hong
City
charcoal
gates
prostate
Hil
Much
##never
ingredients
raising
functioning
leuc
VOCs
##H12
PSI
γ2
evidences
annot
ultrafast
convolution
##P3
reorganization
m˙
##kov
discontinuities
##radi
Nicolet
suffers
ber
##oul
whenever
polydispersity
awareness
u0
sep
##tiles
multiplex
classify
∼6
porphyrins
Kondo
hologr
prevalent
subspace
independence
p0
Doppler
speculate
contemp
burden
Hartree
albed
##issible
##PbI3
HEPES
##kle
1f
##k−1
##arp
transduction
transferring
##enger
##western
curc
##R3
EOS
##AD
##ropic
##b1
CoA
178
deconvolution
query
polarisation
bioavailability
sensible
volatiles
readings
CD2Cl2
m−
estu
pn
densely
Gauss
288
parasitic
clustered
remn
raises
##ffff
exploiting
3H2O
emitters
satellites
fibrin
Hs
##SE
diis
Investig
hit
implicated
perovskites
##imetic
paragraph
obs
TNT
##VO
CVs
##iao
##planar
##ytic
Calculations
LG
##ibb
A4
pedestr
##RAM
##rotic
sensory
##uccessful
−80
##ostasis
##idated
##SP
crystallize
##6O
Free
psi
HU
##onia
excitonic
##ulatory
NAD
τ2
Blue
topics
202
disperse
apex
claims
Me2
parity
photodiod
underground
categorized
generality
##rove
##eles
powered
propagates
##≤0
routinely
coded
##crystalline
##antal
∼30
vibronic
gum
upgrad
dissociative
##itons
transporting
collaboration
sandwiched
4D
progn
Oper
Eb
##BD
CSF
##β1
Mu
prerequ
spill
swir
premixed
Roc
gently
dextran
stereochemistry
##Te3
lighter
##ingly
radion
analysing
adds
Normal
solvothermal
##atz
OTf
usefulness
Tu
emerges
polyaniline
solvated
monoclonal
proxy
##SiO4
minimizes
Suz
##×10−5
##ito
spacings
chal
statistic
infinity
emissivity
polymorphs
caten
warr
PLD
Cyt
##lycer
metathe
dish
thousands
Han
entrainment
tide
Global
cytokine
δH
weakening
deeply
sterically
##hell
gast
Full
Extended
rose
373
colleag
GeV
cultiv
##icine
updating
substruct
microparticles
Perform
##urrence
magm
disproportion
fructose
##ethoxysilane
photophysical
EGFR
inco
Bis
soaking
lid
8c
soaked
viscosities
energetics
microph
##anks
desalination
##RO
compost
##ichia
tubing
request
guaranteed
SiGe
∼7
resil
Supplemental
explanations
galvanostatic
Off
##anesulf
Rather
208
finish
guess
##aromatic
##ny
parametr
stripe
Estim
geographic
Mountain
equimolar
##ontally
##r1
balances
##tisation
singly
ideally
helices
pairwise
##isis
anthracene
dissipative
##ecess
PAR
referring
NiCo
sealing
inadequate
abrasion
potentiostat
z1
chitin
interc
acknowled
denaturation
##iser
vegetable
##hl
microarr
##parallel
impacted
##ischer
nonpolar
cuv
corona
##insically
∑m
denitrification
##icing
fulfill
dilat
laterally
dysfunction
Network
dans
aggressive
CPC
multicomponent
##Gy
bromine
##L3
Ti4
bleaching
##Ga0
773
binders
occupies
473
plagioclase
hydrates
subjective
PRO
authen
CD3OD
managed
engineers
SOI
diamagnetic
##quinoline
##SD
polymerized
##HD
Rp
noisy
alternatively
Soil
##eland
pine
tour
##elve
captures
lenses
18F
germanium
Rab
3500
temporary
Tar
##pectives
arginine
bentonite
##emi
##lymp
lives
##uistic
gait
revolution
bubbling
epid
colourless
synthesizing
nanosized
Phen
Co3
flaw
ple
handed
pitting
355
Tradition
MCP
sales
envis
oligonucleotides
LDL
office
hemicellulose
photom
sieves
##aux
drill
fertilizer
unwanted
Ui
##analysis
joining
extrinsic
catalytically
cuts
overestimated
wavenumbers
inefficient
appe
chemotherapy
mirrors
conveniently
horizontally
vox
##osc
quantifying
mediator
aerogel
##QD
outcrop
##bach
veins
620
Bi2O3
haem
##μB
hipp
Prepar
nonun
Pred
detached
##NE
tellur
##aks
overlying
xenon
ferri
Mb
semicircle
magnetoresistance
##esar
reorientation
aldol
##oval
##onin
##titions
Biom
Preliminary
metathesis
releases
##growth
separates
coin
jobs
##ocamp
##−10
render
luciferase
Sequ
phosphates
organism
Lagrange
Ren
##hE
ℏω
q1
frontal
##lass
XAS
##H7
##aya
approx
##opo
Weib
microbi
miRNAs
waveguides
pseudopotential
##copically
Johnson
μ3
wi
uneven
stabilizes
geometrically
revised
doublets
1981
##axed
CMOS
##oluted
215
Oxford
streptomycin
biref
marrow
θ1
touch
Insp
sublimation
Stage
nas
x¯
spiro
constantly
transducers
Schmid
Olymp
Lamb
Bn
mutually
extraord
##×10−6
settle
TTF
##idelity
##met
MFI
vials
MODIS
Plasma
copolymerization
##case
interparticle
##brevi
metallurg
S11
##ergetic
##aches
photosynthetic
photore
Suzuki
denat
Carb
pseudoc
Series
externally
DES
convergent
silicates
∂u
##reek
ischem
prismatic
Ultra
Iden
##arboxylate
monsoon
eluting
monodisperse
interphase
disagree
hazards
helped
informed
alkynes
ε2
Rc
XRF
##cil
Spectrom
##d1
##TL
Cu3
accretion
VII
actuation
SPC
impeller
truncation
perspectives
profession
##G1
moles
ferromagnetism
doubled
caro
Adsorption
legis
estuary
polyurethane
consolidation
##Cl6
unpre
NLO
11B
damages
discusses
##∂u
720
cellul
##enol
wetland
farmers
AMS
birefring
Yu
colleagues
vanad
##dis
##cat
outline
characterizes
pendant
proline
Na2O
##utroph
contacting
xylan
##kj
impose
associate
epider
673
##12O
hydroper
ferment
QCM
##kt
precondition
S10
lubricant
##roids
##∈N
enlarge
hull
##x3
lob
homologous
##agic
scission
HMF
neutralization
##care
KA
SPA
hemat
±2
retrof
TV
COX
##phenol
reflector
Application
##WC
sulfoxide
Jiang
##obs
glutamate
##−S
Namely
##ensitivity
fc
trench
F12
##istingu
electrophoretic
##requ
blind
owners
propensity
biomaterials
Ef
polyester
cam
biofuels
effluents
AuNP
ks
MΩ
contrasts
enantiomeric
Relative
##dinger
harb
232
coincident
Level
learn
PCB
incin
resolutions
N4
##iphenyl
surg
##esh
##ε0
##IG
refluxing
##CB
SPME
corrosive
##anish
Structure
exceptional
unidirectional
dibrom
violet
c0
surroundings
pyrazol
Union
emergency
TCN
##ulting
##T0
routing
KO
Density
Approximately
192
##adian
IPA
τ0
##ysis
Ins
empirically
Animal
ΔR
stom
accelerator
voltammogram
hydroxides
bs
##WO4
CIS
##ulsions
vill
rinsing
polyimide
405
exposing
##ensing
disintegr
##oprotein
980
h1
diatom
1990s
##ropriate
oscillators
Ret
polypyr
bones
dithi
asymptotically
3rd
Quantitative
myel
PHB
TCA
macrocycle
intrinsically
Bern
nucleate
CFRP
spindle
313
frontier
tetrac
piez
573
Weiss
micropore
NY
strontium
BJ
pathogen
Index
NV
MOR
shedding
##anate
upwelling
##liest
rotate
cytoplasmic
##RM
epoxidation
##ilding
##tl
attach
orbits
4I
provision
participating
Absorption
dietary
##DI
producers
reflective
hyg
halo
denser
f0
Commerc
ω1
##oflu
##PH
lithiation
complications
chromatogram
functionally
albedo
bitumen
surge
ben
accomplish
histidine
##oS
##penetr
biochar
MnO
##imidazolium
Jsc
630
traditionally
splic
##phthal
G3
PAM
intergranular
ε0
province
Real
cany
pressurized
Cle
confer
arte
traveling
smoother
arid
SNPs
butane
##ponse
PID
##chi
Tor
concurrent
compacted
microenvironment
##rates
centrifuge
WF
##B3
##Rn
apo
pooled
Oh
Hist
seek
Na2S
##H9
quark
crushing
equality
biocompatible
##eted
##atio
hyperbolic
loci
arcs
stocks
SQUID
diurnal
##enetic
Tex
##−μ
##vern
EDC
La2O3
remod
genotype
Ag2
Tian
concentric
##grid
converts
regulates
Willi
click
deriving
##γ2
ranked
11b
literatures
##emann
Simulations
##ellulosic
Nov
characters
motiv
Weibull
##benzyl
operative
POSS
F0
partner
Est
partitioned
vacc
np
##Fe0
SCN
ZT
SPM
vdW
Gh
hospital
carries
Project
PXRD
bump
##zyg
reus
transit
overt
NCS
##arser
201
##ono
##neath
emu
MAO
##aze
##veness
ik
miniat
grades
Thereafter
##fully
Determ
uranyl
##bell
##tible
Separ
coron
fasc
BFO
##αi
German
lyoph
2g
repetitive
staggered
teeth
antitumor
suppresses
Beyond
##electronics
Core
decoupled
MPS
NJ
affording
Anderson
duplicate
VIS
conflu
##itably
O4
OCP
NCH2
##heng
tryptophan
##imate
Mars
noticeably
P21
##d3
causal
##date
diffusing
##ique
ancient
shaken
vertebr
8000
nmol
kOe
##polymer
ups
9°
##osides
locked
removes
octane
##s1
slug
Know
##nan
##cedented
crystallisation
swarm
##×n
substitutional
uniquely
offering
bifunctional
austenitic
atmospheres
nylon
##utter
2μ
bits
vibrating
2M
##oscope
mt
subsystems
machinery
punch
ip
redundant
E3
MX
commit
##aun
lava
characterizations
##terozoic
adatom
suppressing
twofold
Source
##las
Aesar
fidelity
deem
plasmas
CSA
fixing
humidified
scarc
volatil
PM10
Contrary
chemisorbed
##otoxicity
Chr
thiourea
##ysics
coral
FeIII
embryonic
wrapped
qi
oxidised
scintillation
uncover
##oda
##∂θ
electrochemistry
RBS
containers
burial
transitional
linguistic
##stad
directing
earliest
1979
##gal
behavioral
Lastly
##oub
retains
participant
reused
pyrro
##wt
clinically
weakness
atr
##het
DBT
disaster
benthic
sulfonate
dendrites
unprecedented
10−9
yarn
anoxic
ΔK
Hubbard
stick
deprotection
adenine
##LM
decide
solidified
##apter
Biot
stri
dendrite
Advanced
##acity
pastes
##essel
impinge
laminates
##ograp
yttrium
##bium
got
eigenvectors
ft
pentacene
unfolding
##q3
pathological
surrogate
spun
weighing
gy
cure
1K
Planck
##ariff
translated
TES
Ah
Clust
underneath
##wi
234
questionnaire
extensional
SSC
flocculation
ene
514
ACC
Ct
abbrevi
##hening
g2
μ1
Analog
interpenetr
message
identifies
tentatively
session
kinematics
##enchym
Alumin
Quaternary
orientational
MSC
outliers
2α
##arian
##HO
chick
phosphorylated
##afluoro
##mholtz
Corre
refining
Cher
divide
##pine
15°
SIR
Escher
eliminates
manipulated
resting
rendering
##ulti
tritium
arrest
##book
exclusive
##ciences
Zhao
##orescent
PMS
reconstructions
cohesion
metamorph
Glass
Rg
##ema
desorb
capillaries
promoters
−30
Gol
Fried
mediate
NaY
coverages
encouraging
Acid
Province
Asian
1980s
Helmholtz
autonom
YBCO
reconstruct
##UC
Hom
LEED
##pan
CD8
##ocarb
425
hexadec
murine
developmental
infra
##Se3
##teen
collisional
Strong
ladder
##psilon
1L
contex
electrolytic
ky
pillars
acidified
hippocamp
##onates
turbid
dichloro
Selected
Ill
physico
continuation
##ibration
packages
incoherent
bipy
g1
transforming
oligonucleotide
dew
182
C2H2
Mer
Site
a3
Eastern
##usk
BiVO4
subsection
OES
lactone
##×0
truly
Fast
184
##ignment
Magn
##oxin
undesired
imperfections
unn
electrocatalysts
Olympus
##−s
V−1
##aints
##fly
needles
QS
swollen
utilised
shaker
None
authentic
γ1
doubling
decel
declare
evidently
controversi
utilities
##inase
##oot
RGD
composting
Dat
roads
−x
−11
retr
mesoph
##ishable
macrocyclic
departure
compiled
Escherichia
occlu
LIBs
##vo
##PB
GDL
meant
openings
##uclidean
dome
NH4Cl
visit
Δε
furf
Rap
polymerisation
survive
##ewise
wrong
##olding
HDPE
##e3
contexts
∼15
amyloid
England
idealized
##CAM
##SAR
benzoic
phosphatase
NCH
magnetometer
cytos
##−V
χ2
addresses
nico
w1
OCH
certified
Sor
ubiquitous
antiviral
drif
benzoyl
chromatin
##≈1
##Hs
CSP
narrowing
##siveness
Dam
ply
006
niobium
ultrapure
HPA
entangled
deviates
denom
##enzym
chemil
speculated
Student
tremendous
tillage
bron
satisfaction
##roin
contempor
microtub
amphib
##PCR
OSL
sleep
flush
##TR
CHI
##iferous
triggering
640
unders
combin
##drug
acetaldehyde
OLEDs
Nb2O5
C6F5
plastics
##ez
lanthanum
mz
Specim
##oney
Period
hardened
excimer
Dem
Burg
Bloch
0∞
D4
presumed
Z2
neutroph
##−ω
La2
##549
PEMFC
Lb
entrapped
entity
unified
complexed
lubrication
##reatic
##rian
injuries
Prim
1640
Remarkably
C19
Vick
−15
323
hormone
##enoid
immisc
academic
##−Δ
recalc
pyrimidine
Still
electronega
hypoxia
diminishes
merged
traced
organizational
Electronic
Fmoc
icos
##VM
style
DTT
LiCoO2
dimethylformamide
areal
##hs
sigm
Medical
farms
##sport
##h1
KB
Zeeman
##centration
producer
appli
adsorbates
gastric
Schr
Copper
Reference
inoculum
worn
##itone
##ipient
gauges
##alin
deployed
stripes
employment
reserve
counterions
exfoliated
oxygens
780
##orily
##→2
perimeter
liquefaction
XY
##3Si
boxes
optimizations
HCO3
glow
Australian
2L
##−P
reserves
phenylene
cres
Turkey
##SR
Iron
goods
inserting
affords
knockdown
##enium
thiols
5D0
226
##ng
inverter
slender
curcumin
sort
µL
barrel
centros
maximizing
synaptic
rc
##uvate
670
multiplier
diversi
187
Mix
sple
habitats
UL
WS2
Line
hydrides
damped
bedrock
##ubicin
##FO
##PEG
HAp
##illar
winding
conce
impr
248
tetrab
Y2
DSM
tolerant
Assume
spikes
Special
aerugin
##tail
##atidyl
gentle
seriously
KF
Evalu
surgical
e1
Ryd
trimethylsilyl
piecewise
imbalance
biogenic
CCDC
##p3
traits
assimilation
##HPO4
hydrolys
injecting
##tizing
Euclidean
satisfactorily
##via
localised
MPA
API
disturbed
##urational
gender
misorientation
Software
##C0
segmented
leached
occasionally
isob
TiAl
remin
##linic
625
heats
ours
autumn
Ising
##1A
##St
Solutions
expansions
continuing
Crystallographic
hydrolytic
245
histograms
looks
G4
overlaps
sands
Column
##lar
cA
diagnostics
semantic
##usc
deemed
##atching
coarser
##opt
##ettes
286
beaker
PQ
Pears
gp
Err
thermostat
##otypic
Lar
InGaAs
##alanine
latitudes
PDT
η5
rhodamine
SIM
CMS
##H14
asper
##amming
Joseph
evacuation
myocard
adhered
electrodeposited
##heimer
reproduces
antisymmetric
Point
inevitably
##RNAs
##balanced
Fab
ut
Die
finely
##factory
1150
vigorously
cloned
tariff
##∂xj
CNFs
##tBu
quinone
refinements
intelligent
Nik
topologies
clone
Tak
fronts
255
alkaloids
admix
Immun
clu
checking
Chromat
##ohydride
nanoribb
Phosph
##hosph
trading
##aporation
AW
##yz
nonuniform
oxidants
Martin
df
##Ra
VD
0⩽
insulated
C24
poorer
##ochlor
aeruginosa
photosynthesis
##asonry
empl
ended
tantal
antig
##avidin
FeII
##ofuran
GIS
##4π
ports
Diffraction
inductive
183
##owski
##umann
revenue
##ahigh
kth
I3
Nuclear
Potential
Reactions
##ondensation
macromolecular
Pearson
##rt
Bon
308
Akt
Agency
stamp
polarizations
arith
enhancements
polaron
214
λi
specialized
prerequisite
fermions
interpretations
##nn
ssDNA
alkoxy
C2H5
W1
##ESY
quinoline
multiphase
##apto
##EI
pharmaceuticals
aerogels
definitely
DEP
hexyl
revers
benign
##monary
Arctic
fins
vulnerable
##lenk
Chemistry
baff
afterwards
spline
shares
##NbO3
dihydroxy
homeostasis
investigators
##ional
flag
##power
neutralized
interpolated
Dun
bottlen
poses
pyrid
crosses
doubt
waiting
secreted
##anic
peaked
2O
coulomb
sq
intraven
collinear
##gar
##ionine
Sha
##w2
Nd3
θ2
##axially
A549
pM
##NAc
Mr
315
naked
dimp
cass
TDS
nitros
Stock
synthase
fermion
Mexico
##X3
marginally
##olines
##enter
Graphene
##CI
θi
versatility
EQE
##heim
extensions
##idae
occupying
analyser
downreg
cyclodextrin
##H11
##hasing
Event
LCS
shortened
workstation
Physical
resolving
Matlab
IEC
infinitely
nanosecond
fullerenes
premature
decomposes
##generation
Valley
Plant
##anethiol
##essed
##±2
tilting
C1s
ANS
mafic
MEMS
spurious
scene
186
Wood
resistor
Neu
thermost
Commission
##pecific
##ressing
##opharm
indications
##indentation
PCs
fracturing
EMG
dispersing
webs
secret
nucleotides
RW
##Hf
##2−x
Pat
x→
pricing
agonist
interactive
felt
lep
##KE
foramin
metastasis
Iran
doi
glacier
corroborated
indistingu
cinn
Tec
nontr
##BF
##arepsilon
3×10
Hem
Kol
destin
organo
##trolled
##ellation
##Pi
##thi
masonry
Neutr
galactose
2x
NIST
HSC
##MoO4
deck
caution
fastest
##−q
breakup
MOC
203
##oxo
##oreg
renders
Gd3
ubiquitin
##pic
##opsis
Internet
cen
5e
680
PDB
horizons
Chi
modulating
graphi
##kg
degrading
CBM
phenanthroline
triglycer
##acyl
Pressure
Bz
##acid
fires
caff
##usive
##xin
##ipolar
Jurassic
RU
incentives
differentially
##tise
10−10
expend
Kd
dors
goat
D6
##uminous
##apez
##anite
Mode
n0
Schlenk
tribological
Saf
PSCs
enclosure
predetermined
exhaus
stear
portfol
coher
wine
Sup
##enza
clockwise
save
##XR
Ag3
intuitive
C21
neurop
Fac
##Br3
superstructure
##apies
octahedron
##isenberg
BST
Until
kinases
CNC
F4
fluorescein
regularization
stays
Zhou
imide
diene
drilled
overestimation
Emm
##omyc
planetary
##≤1
excite
coexist
Net
liposome
Mont
##AM
vulnerability
mortars
K0
insulators
ultrahigh
impinging
alloyed
ALP
##hasic
cooking
##chl
HCN
DSSC
joined
elliptic
1h
Differential
stagnation
monodentate
##anal
−7
institutions
anodization
MSE
whatever
##plastic
transcripts
regio
##bec
SNP
##ochron
implication
##syl
##orubicin
child
##−a
LAI
##energy
suggestion
##m0
diaph
RV
initiating
×10
breathing
olive
##2P
icosa
coaxial
oligo
HW
Nowadays
oxalic
flamm
##∫0∞
calculates
subsidence
classifiers
featuring
##orrelated
H⋯O
iodo
modifies
B2O3
##eg
coercive
##eas
disubstituted
##ront
riser
forecasts
heads
clath
integrin
funnel
WL
combinatorial
piv
athe
##enone
##unte
Fischer
241
formulate
hemisphere
productive
Schrö
Cooper
tetrahedron
##itate
cohort
##ulants
Back
lacks
##adaic
##bands
FU
radioactivity
Cα
Triassic
##fen
Cost
LSPR
puls
mathematically
KD
agglomerate
attitude
cathe
N0
prompted
Por
v0
Kelvin
wetlands
passivated
segregated
elaborated
##chron
Luc
3f
1012
fingerprint
4V
allocated
server
boson
blockage
db
##ensable
Zhu
BV
Williams
NADPH
##sivities
propene
ligation
sulphide
northeast
##fish
refrigerator
recycl
312
Every
##neiss
##−ε
hf
##k0
diket
cerevis
Var
fle
visibility
nanosheet
cet
decolor
##add
##t3
##overn
cartridge
pA
Sat
rift
highlighting
nerv
imperfect
##win
1016
##×4
actors
antioxidants
##scale
dolomite
predefined
Orig
nontriv
electronically
##ordinated
##cales
##EF
retarded
##jiang
eg
multist
litter
anesthe
trav
resonators
Reduc
Rydberg
school
eggs
hub
basalt
capita
Der
Bh
debonding
contradict
Cha
##cs
renormalization
Vickers
nutrition
implicitly
methylated
antiparallel
##3P
arabin
##insula
stringent
granul
withdrawn
tp
acidification
##−ρ
pinned
thermos
##aphthal
sacrificial
##resent
##˜i
##ivariate
downfield
dA
octadec
ure
SiO
020
soliton
CMP
carbazole
W2
penetrating
Web
chondr
syndrome
asymmetrical
7A
##∼0
−13
Leg
nitrates
tac
##conversion
attacks
pulver
allowable
hydroxyapatite
Microscopy
crisis
biggest
merging
Preparation
Photo
intersections
ADP
grounded
##endor
##antom
decaying
disrupted
cars
NSC
undergone
thios
serving
trailing
stabilizer
##aggreg
##rex
Bcl
NHS
eigenstates
equivalently
histone
gyr
##acetylene
##MAM
##opyridine
concre
##XD
cerevisiae
P2O5
##ecal
179
regulators
persist
octyl
reductase
PDE
1−α
flake
sept
superscrip
AISI
glutar
xer
beamline
Ns
Fault
##2Sn
tall
excavation
ultrafine
Δn
perv
phospholipid
prompt
##ifera
glutamine
reversibly
staff
##rometer
illustrating
##outs
opaque
retardation
pools
2i
inability
remediation
Mur
−14
PY
1038
##RL
##olyl
HAZ
Digital
Individ
trending
Lev
deco
Silicon
HEK
Wi
jω
##lishes
microelectro
supernatants
##uris
tie
##adic
seep
dichroism
monop
lumped
parameterization
##MSCs
##DMA
##sile
##inium
##ypes
−8
chlorinated
accelerates
macrophage
ε1
Reduction
2K
##imeters
granule
Nc
quoted
M4
Mechanical
lasing
Images
##XL
Leica
shaping
quasiparticle
EELS
##diffusion
expendit
multiplicity
distinguishable
trapez
Cq
##dies
OB
Eulerian
DPA
inevitable
dé
abruptly
transplantation
thickening
Sed
phthalocyanine
twenty
party
5f
harsh
Conventional
univers
nontrivial
nitrile
Nit
HAP
angiogenesis
nervous
##I1
burned
##elles
pertinent
1350
UCN
u¯
scanner
##iscus
##titious
Read
dosing
Scenari
Understanding
10H
triaxial
pockets
nonradi
##TAT
Hop
MES
tort
1∕
unitary
inapp
##ometal
HQ
6Al
##km
Conf
Tn
Simultaneously
##FR
##sembles
zwitterionic
influential
amen
underestimation
Lie
Yam
advancing
##ξ2
760
##PSO
lignocellulosic
antagonist
1020
happened
##E0
incubator
Ben
isoforms
BCP
CuIn
SiOx
deficit
warp
glycopro
guarantees
##argyl
familiar
pavement
tetrachlor
610
Br−
liner
dephasing
chord
spleen
posed
carboxy
DCP
cubes
arithmetic
V3
spacers
reman
1978
Dry
Electrical
Aer
xanth
motors
##atism
##−R
##ifers
RSM
fell
invariance
525
Mol
Proper
Keith
##isomer
rationalized
join
BH4
exchanges
##El
coplanar
##H16
autophagy
##omel
axially
peb
suffered
##osm
microemulsion
Δσ
multilayered
Darc
1i
##itch
##igan
thermochemical
inn
MCS
##tri
electronegativity
##boronic
encounter
plateaus
bile
vag
dism
Heisenberg
873
PAC
southwest
brus
homopolymer
desulf
chromosomes
12b
SPSS
##BF4
##upp
distinguishing
##τ2
HepG2
Cruz
rheology
birth
##ukary
receives
glide
indistinguishable
1970s
triggers
Fil
##qi
216
onc
keratin
lum
GBs
##λ1
MAPK
Cheng
unknowns
decarboxyl
Introduction
Dox
Spin
##ographed
inward
##ometrically
SBF
microcapsules
Common
elic
CST
013
Shen
##mega
##idently
k3
centerline
craters
Whether
##ilayer
autonomous
sine
##ionate
designers
variances
cameras
Sulf
181
##hots
##right
volunte
Concentr
##igenous
multiplet
calls
dealt
Thr
sticking
crypt
depict
expands
HAA
legal
PPAR
pyrazole
##glacial
collapsed
dispar
diminish
fing
HMBC
2050
piperidine
stars
artificially
Ga2O3
stops
internally
##−b
electrochrom
tetramer
TSS
combustor
FEA
1g
drum
tester
rocking
unim
##én
80°
sequestration
sharper
Schrödinger
smoothed
upwards
##ecomm
CF2
principally
inconsist
KP
d3
##bled
##zers
##body
indisp
mesopore
N−1
northwest
controversial
iPr
wish
Block
RBF
##ityl
##DFT
##ethite
recognised
εr
##wa
horn
265
FGF
scrap
3P
228
Ori
isomeric
##otor
##ungal
KT
faced
InGaN
polyacrylamide
##shift
antigens
Mag
pink
266
##ws
unpub
accommodated
symmetrically
##acers
213
outermost
Combined
superparam
Olig
obsc
DK
CH3NH3
mesoscopic
##aid
tf
DTG
catast
emissive
##perturb
disinf
Japanese
King
##dp
Plateau
hydrodynamics
Key
birefringence
##rystal
bioactivity
CZTS
##adienyl
##cha
lightweight
amperometric
evaporating
CaF2
##anges
meanwhile
affili
##V0
7d
sandstones
dog
imposing
##ako
##tedly
##azoline
##issociation
barely
cro
##rystals
LDHs
photodiode
tablets
mediators
##illa
molding
CCl4
interferometer
CuKα
##∼1
luminance
ABS
HTS
##amond
episodes
353
1450
δC
avalanche
Mechan
##ivil
##v1
WP
inflection
disconn
DOM
GABA
miscibility
conflicts
trin
eukary
alluvial
spir
##together
##amant
loosely
CU
##HR
HIF
Boh
houses
Å−1
extraordinary
picosecond
Pm
##amel
Self
divergent
LNG
ensembles
declines
Ds
hinge
##−z
##orphyrin
ZnCl2
Equations
connects
guanine
##ée
##ESS
irrele
AAS
Vg
crystallographically
PGA
completeness
dm3
LSC
EK
Council
Bank
xˆ
locking
mc
nonmagnetic
∂T
Li4
nucleated
manager
##∑m
##−σ
purge
WGS
Portland
CEM
RPMI
590
##holder
spacec
lasting
CPT
Al2
attract
Sz
Beck
##eritics
DQ
opposing
SCM
encourage
RK
∼8
AlGaN
##O7
microcrystalline
nitrides
pulmonary
z0
streamwise
biphasic
##LB
Commun
##igand
rectif
therapies
EPD
sieved
genotypes
##jet
mK
coumarin
exceptions
impingement
asser
008
Hyper
fluorophores
serpen
Ras
##iversity
##lings
conformal
ultrasonication
Building
alters
heterod
unnecess
flavonoids
View
regenerative
##room
SiMe3
Ministry
blanket
CAT
hits
##→1
juven
Cen
ODS
maximized
Spectroscopy
TEC
appreciably
consume
Sum
HPC
##atized
ovari
##roscopic
morning
transformer
##anoate
fading
hydrogens
biotite
Ek
##erators
##122
2T
HCV
retic
Roche
##PAC
IX
Band
interventions
##ologists
laccase
SZ
pear
trying
TBS
ic
dox
expresses
Myc
detonation
##uene
##aran
compressible
hyd
13a
solubil
harder
Rct
209
OPC
randomized
viewing
##axel
MWNT
borohydride
aband
Thermogravimetric
BMI
##ucose
Ry
spreads
scalable
mS
475
##anediol
cycloprop
microd
##uce
PMT
Stark
nth
spectrometers
Cx
CFU
wireless
mist
coexisting
##onectin
Soci
rij
σi
dn
ineff
4F
copies
Hyp
pushed
judged
##oliths
IQ
##issolved
swing
pancreatic
##anil
quadrupolar
CEC
gated
w2
withstand
ẋ
calibrate
hydroxymethyl
##entric
InN
∫0∞
minimise
##uri
globular
cables
PTC
tracked
Silica
##u1
2×2
1015
##ωt
boat
##rell
commod
seaf
SOM
unpublished
tracing
heterocycles
1−2
1p
nonradiative
absorp
−40
imported
Job
Brunauer
Cb
story
40°
Micromeritics
##−t
leth
loses
##erephthal
Hard
antenn
bins
stat
microscale
##H18
achievement
##H20
waveforms
##oxycarbonyl
GNPs
photoconduc
CHF
Burgers
willing
fluidization
##2A
imagery
obesity
264
1950
hbox
##ashi
obey
SCS
##asic
Tim
lactam
1×
H7
Proposition
adjustments
##5O12
CIGS
283
S12
HO2
Area
summed
Analyzer
##⋅⋅
cryostat
##eside
##meV
TCO
##ω0
##−A
administr
exemplified
quencher
dissociate
dental
##ertz
sizing
Kong
##ultipl
adherent
R4
ASC
incur
French
envisaged
prey
NTs
irrelevant
storing
Ultim
enforce
##adiazole
##oubtedly
eroded
##uchy
isostructural
Ele
informative
equiaxed
pac
pharmacokinetic
photoanode
L4
tautomer
ADC
##rochemical
quantization
subcut
exchangeable
HAu
##allation
plasmids
pyruvate
##groups
dictated
twelve
underway
delivering
mercapto
mC
hip
europ
Keithley
##cetin
233
microchannels
goethite
chalcop
dropping
PBI
artifact
swim
P450
Fuel
incipient
pref
anatom
photoelectrochemical
gut
comment
##feld
##ΔT
##indole
saliv
Sox
##dT
##3A
Detection
ontology
wool
purchase
DU
discip
##WR
phenotypes
spinal
Fe0
evaporate
boronic
indispensable
GV
Wilson
##ali
##MB
Vir
lithosphere
configurational
##eties
surplus
##μ2
antip
##atsu
##∈S
shocks
##hertz
##bral
potentiometric
Fund
obstr
##ician
interestingly
Ide
##omechanical
ig
hydroxylation
dilutions
offsets
NDVI
##era
##sin2
##Mn1
macroporous
GQDs
Darcy
Condition
caroten
cuvette
envision
##vey
fundamentally
Comput
194
##osterone
spans
δ2
nebul
loess
Josephson
London
##lating
photoresist
steeper
ξ2
##˜2
LJ
precession
phospho
Vp
NBO
##NB
Denmark
bark
T6
pursued
TRP
contracts
M−
thousand
bolt
ultrafiltration
sinks
recurrence
demagne
##ycline
MAE
undist
shaded
subscripts
anneal
##oate
mammals
##hybrid
MAX
playing
entropic
pathogenic
dsDNA
La3
##SV
##Ss
interviews
spacecraft
Acad
percenti
hemispherical
elevations
Ĥ
Path
Alexa
ripening
xx
224
proposition
interstitials
C30
##θ2
phospholipids
nucleophile
##analytical
Element
paleo
Bed
##tites
Id
glutaraldehyde
##C4
nanoplates
pyramid
preconcentration
Bi3
command
Jo
##opyrox
##lett
Transform
Plan
##idental
PAMAM
Galer
##loor
magnetostr
eyes
N7
descending
tau
##SL
305
##−h
ionisation
423
Cauchy
335
##olinium
occurrences
Nern
Born
SCO
##UE
cs
##phen
##jin
dpa
7000
electropl
##rig
##i1
Measurement
UHP
Rd
ν2
##g1
guiding
photosensitiz
dishes
DNS
−α
FePt
##zhou
gli
Mis
i2
GTP
gratings
tolerated
##eless
mimics
Expression
##transferase
##bac
##IB
decis
##ensic
microarray
Y3
CTE
dielectrics
##iplinary
safely
Throughout
##NL
Well
southeast
vaccine
cru
lamps
Pli
phosphorescence
assure
reproductive
##itness
Belg
##−β
HClO4
nanotechn
underestimate
Effect
##MF
Ven
win
streptavidin
antimony
XC
uncorrelated
kp
Attemp
justify
25°C
learned
α0
fisheries
rRNA
activates
##Δx
fluences
Vc
shallower
shading
AcO
splits
Increased
synchronized
diaphrag
014
cite
C23
239
TLR
1977
Lange
TCR
##vic
Ann
street
feedstocks
##˜1
juris
circumvent
glycosylation
endow
1011
tubulin
Repe
proportionality
##KA
ρs
##atization
4th
momenta
varieties
Purification
foods
Vm
infusion
vapors
polyhedra
Miller
hepatocytes
cargo
investigates
stator
##180
contributor
crest
labelling
inaccur
xt
336
ICT
judg
Et3N
aerial
NiTi
acknowledged
Station
jurisd
SET
##agel
OFF
acetylation
devised
merge
##jo
deoxygen
LiPF6
oversh
tapping
chair
eigenfunction
##mia
Short
fluorite
CH3COO
snapshots
##chair
Biosystems
effector
Industr
worthwhile
##F0
Agr
Functional
##ionization
microns
fibrosis
crashes
1550
9c
funding
Day
rebound
Nucle
Eco
congen
LOQ
m0
##Ch
residents
##irical
Kle
##∈I
PHA
thrombin
micrometers
KE
headspace
1013
dE
transversal
DRX
Ni0
retre
endocytosis
ṁ
Cc
grand
##ipp
antibonding
≈0
HAuCl4
nominally
##jection
##ineral
misal
##lications
Fortun
varepsilon
dibenz
recoil
2030
HZSM
L0
SAS
Models
theta
characterise
Bulk
aided
elaborate
arth
##ectable
basalts
saved
tantalum
Alder
butadiene
Å2
##WT
swept
judge
ultrason
worm
Melting
##loy
capacitances
proving
secure
Gil
assigning
establishes
pregnancy
embod
diaryl
Lands
Basic
##ashing
biodiversity
steroid
contig
DCs
##prints
corrugated
merits
2CH
##η2
relay
##vie
Hybrid
Cary
##aland
QP
SLM
flus
ϕ1
restore
##yrite
dorsal
pads
helic
##lm
clasts
EC50
solubilization
##bro
Govern
lyophilized
breeding
##μ0
conventionally
prospective
biomarker
##⩽0
valent
Li3
tea
inserts
overlayer
KM
1976
centim
70°
rif
189
pT
pyrox
wetted
Calculated
Frequ
daytime
##acep
##omings
spectrophotometric
specular
GOx
##avoid
polluted
experimentation
nanopores
Oil
##olia
realizations
APP
propargyl
DNP
registration
1975
Regard
iteratively
vitr
##eretic
unsuccessful
IGF
191
lactose
∼40
Cf
##port
DPPC
SCA
AX
restrained
223
SRM
temperate
##osting
##utely
PGE
ACS
##utting
##iley
2200
##hu
##a0
##tilis
page
perfluor
##ospace
##sto
Diels
##DB
##atics
##ovirus
ceiling
malt
impar
math
Jacobian
TBP
skills
internalization
Tin
dS
transect
interband
##anions
##veloper
ϕi
##LF
AUC
sag
cann
##ortic
##no
bacterium
absorbs
ECAP
AAO
Lat
##aughter
hexafluor
virtue
318
R6
PbO
lineage
Don
depolarization
simplifies
incompatible
Pel
BK
U0
Δr
interpreting
microplate
Sti
y0
qPCR
##IPY
pioneering
unsubstituted
floodpl
absorbers
NPC
congestion
3S
Twenty
##HB
TPE
##foil
sixth
##born
monoliths
odor
3M
your
Proced
sulfonated
adsorbing
phag
adenosine
furfural
##educ
phosphonate
prestr
##CH4
agglomerated
Tetr
##erating
preferably
microbes
reside
catal
shortcomings
nm2
##y1
chemiluminescence
estr
##NRs
glucopyran
##trimethyl
retinal
Regardless
alkalinity
sial
Dy3
Nak
optimally
eddies
efflux
##gels
d0
nowadays
Galerkin
MCN
gasifier
smec
occupants
interrupted
##ρ0
Kum
QE
donation
dimethylamino
µl
##oxacin
CY
metas
thermoplastic
ORC
depolymer
accepting
##orbent
discussing
Δm
nanoindentation
AZO
overestimate
PTX
contrasting
##anuclear
entrap
Cs2
Ros
Kerr
biofilms
tetrabutyl
Bacillus
Hug
nucleophiles
landslide
Fed
unres
##HI
Biotechnology
Represent
MY
annulus
αβ
##tral
went
##lope
##UA
Mn3O4
sinθ
lobe
nose
Pd2
ascending
nothing
airborne
stereo
740
necrosis
unavoid
bypass
1F
##r0
shortly
Son
##ymmetrical
Sy
Cox
Ta2O5
corpor
Bond
grate
Tib
l2
##rological
##m−1
Malvern
immiscible
isotrop
electromechanical
##estation
Polar
cheaper
NiAl
MTS
polypyrrole
##ala
##oum
welds
U2
nitrification
HDS
##EB
6C
spar
##rote
##aqu
lesion
##oproterozoic
##VAC
emotion
##iskers
θ0
strom
##orrected
PCP
Hay
##sel
hop
recordings
343
Stern
suddenly
633
submicron
ratings
spectrometric
##idi
lots
##akers
homology
lasted
415
influenza
##osilane
##adiol
12π
C57
##N6
incon
aza
stably
polyamide
sequenced
hairpin
282
polycarbonate
ν1
cosine
##agle
tunnelling
rearrangements
uj
quadruplex
FV
bread
1024
cleaner
unambiguous
##oselectivities
##heating
CuCl2
pipelines
##u0
##elts
##rs
##ρ2
Circ
Tm3
Ib
lymphocytes
Morph
TIP
IPCE
kGy
##tish
spor
cones
Earlier
##xz
VSM
CAM
2G
determinants
azobenzene
##rement
overw
4J
storms
obeys
suspected
DRI
inaccurate
portfolio
##oreduction
shor
κ2
##omething
depress
slur
tunnels
mounting
075
tuberc
disreg
fic
Ye
236
weekly
##olis
mosa
##utch
NTA
Fs
magnified
CCC
##reen
Norm
singularities
Lenn
alkoxide
gaining
doxorubicin
Flor
##net
meets
thread
yr−1
shrinking
warmed
artery
door
racem
electroless
pulling
PdCl2
legislation
Permian
sums
basaltic
antifungal
influx
##avas
radiocarbon
OCV
Dom
atomization
ATRP
Oz
brake
denominator
##Al0
mercapt
defense
CoFe
HDL
scavenger
ric
cues
##K3
Rhe
immunity
973
belief
ρ2
σy
##SO
herbic
238U
NZ
CDW
responsibility
Henry
##ocon
metastatic
Ks
vin
comments
rectangle
electrocatalyst
bay
thiolate
PECVD
##111
Jahn
##GR
##ocomp
##mis
##choline
##available
Na3
dτ
flushed
photomultipl
magic
attracting
##ran
penta
suitably
##amous
subdom
commitment
37°C
Kohn
##MnO4
fruits
QA
Neither
##cel
malignant
Wnt
Fortunately
##crystals
evolutions
cu
accommodation
μi
Hp
trunk
ovarian
Society
employees
##elli
photolith
summing
correlating
##inces
218
##azone
annually
unnecessary
##atement
remnant
disagreement
timescales
hall
APTES
radially
##Xi
bet
Experimentally
O−
anal
pertaining
bilinear
296
negoti
CQ
Finite
Imaging
exceptionally
Ti2
##ye
phosphatidyl
triazine
complexing
spintr
λ0
adjoint
435
27Al
##lb
inhomogeneities
007
rationale
TEMPO
Products
t−τ
collaborative
##anched
teph
HCT
ineffective
OX
catchments
##ammer
fibroblast
eccentricity
##ecture
Lix
microcracks
278
terephthal
Pit
##aphyl
Resid
Turb
byproducts
ejection
##opter
MBR
Emmett
MSD
Ord
##ias
PNA
##ofluorescence
brackets
phage
Heter
##col
overhead
##amido
contracep
diblock
pyrochl
HOPG
RCA
PPO
admit
meniscus
##x0
##tting
divertor
congr
##osil
tann
impressive
7B
##uate
feel
multidimensional
remarks
tethered
predictors
nt
melanoma
phosphorous
MgH2
developer
##alumin
VAS
cyclone
Visual
canyon
ellipsometry
t∈
interplanar
PI3K
U1
ITER
Drug
##amed
NIPA
superplastic
##ao
economics
tablet
Management
7H2O
chalcopyrite
Service
isocyan
potato
Enh
dq
##alloy
HCP
5×
NOE
cytosolic
p38
##Ai
damaging
##appa
##101
tm
MZ
carbamate
##lers
##−11
TiB2
manipulations
relaxations
287
221
Great
Rever
eventual
mn
Cu1
calorimetric
violation
PVD
LiMn2O4
detergent
yn
COSY
∑l
tags
recru
##⋯O
diffusional
##onym
##ucted
sorbed
withdrawal
##NCs
WB
qualities
##ˆi
quantitation
##Di
sensitizer
governance
qe
Crystals
Ell
PLL
##inetics
Growth
dioxygen
##lerosis
Alq3
V4
##utors
conflicting
manipulate
##bow
atheros
concerted
designer
Frank
Finn
##olyb
ERK
gh
t−1
coulombic
Squ
Extensive
νmax
253
##iesel
##economic
IMC
inductance
heaters
delivers
##ilateral
decisive
Li2O
##aught
Nm
superparamagnetic
decentral
##ups
##formaldehyde
##ε2
mamm
biodegradability
##̃2
##ogluc
engaged
##org
twisting
Km
DPPH
Ammon
##yclopent
bedding
Tang
navigation
disproportionation
lengthen
##opulation
##ectious
butene
Ost
Dul
nitrophenyl
hill
deconvoluted
##apo
##otemp
##rocessing
Evidence
CuS
vacant
histological
Rm
Thereby
roller
##tra
Fick
##enchymal
##greg
##dd
something
wavy
kz
subtilis
##fin
TFTs
σ¯
dune
destroy
progresses
dangerous
stepped
perforated
nested
foaming
Scenario
##amn
ak
lun
##otting
3s
errone
##ameth
Medium
3JHH
seab
upregulated
345
SBR
##ja
suff
banks
aspir
alleles
cements
frost
dimethoxy
CCA
##−7
Eight
silencing
523
Almost
muon
##essor
distribute
##acian
antagonists
##olid
diisopropyl
yearly
##GP
25°
Schmidt
1014
triflate
##atitis
##ahertz
##vals
1064
Correspondingly
243
Oxidation
insect
recommendation
##structured
1073
Carl
bimolecular
Rod
tc
leaders
Mises
##igt
##ologous
SAPO
##B0
##transp
pyridinium
FLA
Mit
##igned
robots
Transport
Age
passenger
xc
##olv
BJH
stimulating
##N5
pathogenesis
Brazilian
##ropyl
inoculation
digi
shielded
Bell
##osable
##plane
PLE
Hes
kt
amenable
provinces
ROC
PSC
##inos
supplying
SPP
##osteric
swell
factorial
dione
Lennard
##SF
things
Biosciences
ib
unreal
reconstit
richness
Performance
borne
ρc
Russia
ZFC
CER
##⋮⋮
##12O40
leader
graphically
531
ozonation
vas
knowing
##oisomer
acknowledge
hyperpolar
TiCl4
resilience
supersonic
contradiction
Whilst
120°
CS2
agencies
MgB2
particulates
goodness
terminals
exhaustive
##itus
##ublic
##onential
looked
##TiO2
3R
hinders
gir
civil
triblock
##earing
##agenesis
physisorption
photores
melamine
denoting
Kyoto
Pseudomonas
J0
furnished
warning
incentive
underl
##level
intrac
##pc
Siem
facial
##∂xi
appealing
##imides
Knud
brass
irreduc
##N0
Les
authorities
KC
accessed
##Y2
landf
uncorrected
##uosity
##inol
Berg
containment
16S
peroxidation
Bessel
Coulombic
fans
##Js
arres
sweeping
##ropical
upconversion
favoring
pulled
Je
Complexes
Cole
##−6
Rut
BODIPY
MLCT
FCS
liv
##irty
flexion
reciproc
acetal
phylogenetic
Δμ
ejected
pyran
CPs
FeOOH
##yo
Individual
##ohist
Sham
acrylamide
##kk
##leting
naphthyl
Download
porosities
losing
neutrino
ambiguity
genera
##overy
##erite
##MG
siloxane
meg
##aments
##ocks
mutated
##inition
##acking
##oder
tumours
##eners
chiller
Inclu
grouping
fascinating
##FL
constituting
descriptor
Econ
##S0
knockout
Layer
hysteretic
microsphere
difluor
europium
99m
statements
catalog
##H13
masked
cancel
processors
warmer
sterilized
kernels
saturate
peel
toxin
Hilbert
ξ1
condensing
##asome
stabilised
ingot
tailor
slurries
1P
Refer
ellipse
##ambrian
Portug
050
truck
sampler
##stadt
inflation
2r
ωt
##aming
supervised
diastereomers
digit
##FD
GNS
##rolactone
515
diffusivities
polypeptide
succeeded
TMR
deflections
Alb
Tod
##onomy
essence
bunch
##enda
Nafion®
counterion
CPA
±5
##xj
5th
3600
##ophila
lysates
merid
temporally
Attempts
spores
urinary
concludes
ESA
Silver
NOM
alleviate
227
TPS
##L4
##−5
##CAT
Perhaps
Paul
10000
##lylation
Pauli
unresolved
##ynitr
Pati
dispers
enterprises
##ϕ2
##entified
diamin
K2O
##a3
314
Assess
tonnes
Rapid
##yles
Primary
1O2
evaporative
gang
observational
Knudsen
dinit
cerv
disassemb
Tests
lifting
##−D
monovalent
1650
DHA
##atile
TCE
aspar
electrochromic
electrol
extremes
contacted
Spectrometer
replica
##ismic
ρ1
unex
Rub
ARP
##−B
Fluid
##fy
kd
##VTZ
##gene
##−θ
concretes
templated
bathym
scoring
adipose
gneiss
NaNO3
B12
##ocyclic
Kinetic
##olvent
SDC
Representative
LST
grant
Prand
690
tapered
##eping
Pr3
fines
fj
##∫Ω
##ishment
##dew
mandatory
Ce4
Deg
preheated
relying
##−λ
student
pesticide
##actical
unstructured
##GFP
P5
nanotechnology
Republic
##anger
##azoles
automation
azido
coloured
slowed
regioselectivity
matters
RAFT
Va
overlay
timber
dump
Zirc
FH
Ful
Palae
Methanol
ét
CH2CH2
randomness
##H17
##dΩ
##rosp
##maz
##pn
##f0
Dh
Volmer
Nanop
12C
##ouling
Δλ
punct
Access
witness
Landsat
exerts
##−v
truth
seeking
fragmented
##osulf
hc
##ependent
uppermost
C5H4
LTO
communications
Nikon
##keleton
irreducible
finishing
Packard
##BO3
forensic
alarm
301
paraformaldehyde
cosmic
aze
Conduc
consent
implementations
mineralogical
dun
2ν
bagasse
##linearities
insets
hump
oval
stretches
Neumann
computers
metamorphism
multiscale
tracers
repeats
MCT
abstract
spaw
subdivided
incineration
ΔC
2Δ
replicated
ré
Siemens
ending
pseudocapac
Nt
armchair
217
centrosymmetric
VH
Theory
shales
##ospec
Particip
brushes
casein
##B6
Zealand
simplifying
##NW
congl
2ω
boot
reper
##onine
mAb
Study
OEt
infinites
Spectral
Industrial
birds
ultrasonically
oligosaccharides
ashes
tiles
glucan
GU
UNI
zircons
positional
farming
Lag
triclinic
CuPc
4×10
undet
PNP
##ictions
h0
genetically
oligomeric
AlCl3
−d
018
midpoint
##MAS
flocs
cyclohexyl
tt
players
BEM
nonspecific
kA
i−1
FTS
sciences
radiant
phenylalanine
Adminis
##254
Biological
perturbative
spherul
4S
##cos2
##q1
##∇2
mullite
7H
r⃗
intestine
NiFe
Rot
Product
##DAR
methacryl
precious
osteogenic
hs
EDL
pC
intensified
SFE
GNP
floods
quercetin
##urning
SAC
##arene
##omagnetic
photomultiplier
##130
50°
Lind
##uma
synergy
Unless
norms
substanti
##zzol
cock
proceeding
##meas
personnel
salen
cope
##ete
entrained
disrupt
SBS
dC
bist
NAC
immersing
consolidated
searches
##ör
##H15
PEEK
SAW
Grant
##⩽1
octanol
##iper
admissible
Ross
##ritis
Brook
FAM
adherence
settled
agonists
Prandtl
##itoneal
migrating
Peninsula
##ulter
aerospace
immunoassay
tribut
bottleneck
dissem
Rt
nonlinearities
piperazine
##itates
11C
##2S4
corroded
H3O
digest
catalase
##ocus
##̃1
irreversibility
##fined
pedestrian
compromised
##oprec
meat
EVA
diffuses
lumen
0000
2γ
hills
silicide
permeance
##ocratic
A5
##oreactor
∇2
qui
Pul
Sm3
FDA
##oisomers
sight
embritt
244
degassing
##facts
##C5
Hew
##opyroxene
DAPI
##P4
CoFe2O4
permission
nodules
−∂
cardiomy
adhere
CID
spong
C26
PBA
chim
##essing
Paris
Fa
Certain
##hum
Zinc
≈1
differentiating
##oving
C5H5
pyrolytic
##loid
bringing
Membrane
uncomp
Adding
Joule
depart
##rotective
Δν
jurisdiction
σij
packets
solves
##rophy
##TOR
TCD
RDF
Ohmic
formyl
holograph
dehydro
##how
ancillary
remodeling
Thomas
saturates
##ummy
##aphthalene
##LV
Specimens
hexagon
tsun
fauna
ALS
unrealistic
lath
scintillator
Dex
ASR
hemoglobin
##adder
Wol
Finland
yj
bearings
Il
Q3
methylimidazolium
nu
OV
Food
Hydr
interch
Guang
Possible
APE
Commercial
profil
##pyrrol
appliances
393
cn
ϕ2
##sives
##ende
##istal
3He
abatement
##perturbed
##iscent
Italian
thro
woven
##hedrally
∼12
infectious
photop
##etre
Malay
ores
aven
Riemann
chaos
unsuitable
mats
##2000
GAC
AcOEt
bra
predictable
clog
float
sulfonyl
pinch
∼200
##c0
unusually
DCA
impairment
ε̇
##hexyl
interdiffusion
plun
##xn
##chin
imino
Ridge
proportionally
TCNQ
nanocrystall
##̃i
##rid
unm
ionomer
aqua
benzylic
022
DMAP
macropores
−9
KH
tapes
##arth
Jack
embodied
##abrication
JC
concord
##adiation
organisation
##otax
mannose
HPT
AOT
bioenergy
faulting
leukemia
ellipsoid
Mercury
##pq
Cast
PNIPAM
##ennial
lectin
DX
delib
hkl
##Ne
trifluoroacetic
Master
##dθ
artefacts
juice
MOCVD
##K4
Physics
Ash
1973
##ellite
titrations
managing
##kr
##away
##OX
Tibet
840
umb
shrub
##−γ
anticipate
Tag
flowrate
quies
dominantly
##ynes
##accept
cervical
##EEE
ϕ0
Fn
reconfig
##orec
SOFCs
14a
LIF
bioge
prisms
superlattices
hydropower
Vic
##LR
1018
interdig
Yan
##asia
Fine
##eptic
VBM
gad
Mathem
Langevin
pins
amination
μC
NaI
##urbed
##prec
surveyed
3400
##hai
GCM
Δρ
maybe
##oamp
1→
nitrophenol
initiates
mTorr
4s
Texas
CBS
Norway
Kl
##itivity
fm
##Q2
urgent
biosorption
Vor
Creek
photost
initiatives
##inin
Transition
perylene
installations
wastewaters
Partial
inappropriate
##arcin
##igration
Yi
NOESY
Darm
aerated
Schw
##−τ
everywhere
epic
PIV
AChE
##iba
phosphoryl
atomically
LCO
##heet
retin
##140
imperme
bounding
VV
C25
avoidance
UPS
##I0
Ster
suggestions
GDC
ethylenediamine
##itance
propos
Removal
Climate
##imals
−16
glycosyl
##utional
600°C
PBD
biomimetic
inactivated
descent
##ospor
HAADF
##coming
ferrites
##BB
##ellul
teles
neon
##ocusing
seafloor
##w1
##place
behaved
##TH
tosyl
subp
affiliations
spi
softer
tile
##otyping
HMS
##N2O2
##ethanolamine
picked
entrapment
##j1
methodological
calomel
grit
##worth
fluorination
tetrafluor
##acetamide
LiAl
##chen
−50
##neous
restricts
names
threefold
##CF3
276
derives
imperfection
D5
##mo
aquifers
unal
peaking
272
eleg
##imen
CH2CH
deleter
longitude
t2g
stereoselective
##zygous
##pack
316L
STS
Theoretically
ABT
compensating
stereochemical
Positive
##encl
3d5
reminiscent
BCS
Sto
Coast
Kalman
unde
CIE
tib
notched
Effects
sensitization
bears
nitrox
replen
geopolymer
modifiers
##arcane
migrated
Auth
Bad
encouraged
##z1
toroidal
launched
##oborate
HRS
Argon
Government
237
Just
mimicking
##yroid
plumes
##estock
cryo
orthogon
geophysical
cesium
swirl
ΔF
Spanish
Belgium
##jn
##imed
supersaturated
hypertension
##atan
unperturbed
biosynthetic
##gard
sin2
dialkyl
500°C
##oding
MAA
##lisher
streaming
##kinetic
tailoring
##oflav
diffracted
gov
coff
GNRs
participated
manifests
Rank
adren
galvanic
Princip
extractions
translate
configured
Spectrum
photoexcited
Titan
POC
##bore
GMA
emulsif
prodrug
HEM
conceiv
##igner
OO
preserves
−β
destabilization
chl
##aphth
abiotic
##aping
subgr
##iased
Optimization
Summ
##osidase
fishery
um
##siloxane
##TPP
polymorphism
Petri
diaphragm
voxel
estrogen
diluting
##testinal
##ijkl
parasite
pDNA
binuclear
searched
CRP
forging
recursive
photothermal
Dire
##je
hypothesize
Computational
##nai
GPR
Soc
ECD
##oA
bain
Fox
##spring
##olyte
Beta
mesoscale
cofactor
impacting
3β
wealth
##copies
##As2
chemists
grounds
dihydrogen
AM1
Lac
supercooled
ACE
enamel
slowing
whiskers
KH2PO4
eruptions
estuarine
MHC
uncontrolled
cosh
Eventually
PMN
Standards
BCC
##cd
TDDFT
polyphen
parameterized
##ship
Rash
##hlet
TMC
WR
contemporary
official
99mTc
NPP
Sant
linearization
CHA
templating
Proble
kh
623
Bound
realizing
##odiimide
##itan
##rocyte
HIP
Que
superiority
lignite
mesophase
ξi
polysulf
intrap
ck
undoubtedly
ωi
2β
289
perfusion
##hler
medial
ambiguous
brecc
buy
Number
MCC
overcoming
Comparisons
252
##atable
##stan
400°C
inherited
oblig
cj
##tizations
δt
rooms
stabilisation
B4C
substructure
Radiation
Lithium
723
os
##ventional
unin
bags
chelation
VM
blotting
1900
Strept
##oft
CEA
dipped
##sized
Dow
##romega
Channel
Cycl
632
##h3
toug
nanoribbons
glue
##ynchron
##eldom
arterial
##sky
q0
820
feeder
kf
NH4OH
sessions
##xO
##Sp
##epit
1π
Promega
242
subcritical
Lambda
collocation
overd
lysed
pozzol
71073
outperforms
σx
gating
##ifted
neutrality
chlorination
deleterious
BDD
bloom
biop
flowed
Inhib
##ymmetry
Marc
HX
Voigt
LDPE
glutamic
quantized
bulb
Disper
phe
##TB
∼25
fume
inequalities
elastomer
imprinting
DOF
catenin
Cong
ΔA
toe
Prote
Complete
##amyl
parental
rhiz
485
jacket
##po
recl
Highly
ellipsoidal
persons
##acher
Aqu
practition
unfolded
geomorph
CASSCF
Irr
Darmstadt
cementitious
VN
nets
Being
piles
Nord
broaden
undisturbed
730
BHJ
acylation
Hospital
##H0
Thi
embryo
EVs
Sher
talk
myocardial
##Ln
##otherapeu
##GGA
lungs
ted
##icidal
seldom
##Ti0
302
##osene
CuSO4
##olithic
Space
cAMP
genomes
1G
1017
Oi
##tructuring
redundancy
recurrent
benzimidazole
fn
oldest
oxime
nozzles
polymorphic
Mah
QWs
resides
diges
Acros
##B4
398
unavoidable
Richard
GRA
FGM
Fract
dien
##−∞∞
Card
##anding
qubits
aluminosilicate
aj
chi
##amboo
SNA
elucidation
##ocyst
blockade
assets
regularity
##litaxel
##meth
RPA
convinc
superscript
##emy
##OOH
V5
RHEED
∂y
##tc
##dτ
##orrh
##tler
engineer
overwhel
##ées
encr
##ocated
transporters
subgroup
SOA
CHN
##du
Colorless
##branched
porph
##fe
##ulosis
miscible
NHE
ribs
960
motility
Tianjin
##atr
##tiveness
shortage
seemingly
modulator
Chart
streamflow
commensurate
Poland
CoII
alkynyl
penetrated
##Cu2
detrital
flour
professional
translates
subcl
unrelated
rendered
##6H4
grab
##P0
necking
##D3
##cm−2
cas
MSA
Evidently
##arriers
SMP
Protection
UN
legs
FFA
retailer
macrocycles
decolorization
Calibration
LPG
coiled
methionine
##uclides
destination
ingredient
Repl
kaolin
##cam
##olated
definitive
monochromated
Microscope
DDA
RMSD
##×3
hypers
scheduled
Definition
recre
Bir
ignore
ect
buses
Ip
ethn
##CoO3
degrades
sold
poling
Avance
cerebral
stores
weaken
epoch
readers
Isot
PPC
OVA
Characterization
Iso
reward
Hot
Song
acetylacet
pyrochlore
##ocked
##otite
NIH
nanobelts
Error
conting
reusability
GJ
Random
diminishing
epithelium
bootstr
elap
Analyses
catastrophic
trichloro
Δω
LSMO
Dong
##−F
##ustrine
Né
LFP
##Elmer
Bax
imposes
compliant
convers
styr
Ok
outgoing
Dimethyl
evanes
Expl
seat
Electric
##bf
##uests
##acces
Final
##iffer
dσ
##∑l
multiply
##afish
hands
fragile
ETS
unconform
##xc
York
Ae
factory
Proton
ESCA
TRI
tridentate
##azolium
interconnection
Recall
chemos
MET
Charge
##elfare
Blood
##∈Rn
absol
##Al2
pI
##alid
PLC
strings
Gibco
tailings
adsorbs
ACF
AgI
Stress
823
Culture
parents
Al0
repos
##aternal
##tidal
vo
enlargement
AEM
chlorite
amel
EMS
##lassical
lining
Soret
reconstituted
acclim
800°C
2X
Titanium
##von
fibril
governs
##j−1
PerkinElmer
RED
sulphuric
attitudes
rhyth
##J2
expose
Mesozoic
O6
##phosphate
Trip
##wave
solubilized
glaciers
cellulase
β0
incubating
lobes
##brafish
guests
##∈V
worksh
CD3CN
##flamm
underp
EGR
Util
byproduct
##ón
REM
Administration
hur
cyclohexene
farther
ACP
263
economies
stub
expertise
Perdew
Harr
K4
##utta
MCA
SF6
1≤
Larger
planet
unexpl
Hir
ISC
385
C28
Δθ
frustr
mental
C6H6
liquidus
accuracies
upregulation
##aga
restoring
##lonal
Matrix
##001
##R0
carbam
##hor
Fres
##PDH
Ice
excur
Survey
##glycer
intravenous
accelerations
Cancer
accessory
##oz
vicinal
British
dryer
##alloys
Ce0
deactivated
kΩ
quasic
predominance
RNase
latency
livestock
TMD
phantom
Gri
metallurgical
AIBN
Kur
##≪1
anil
LbL
LCST
Function
4500
supplementation
20th
worthy
radon
perfluoro
slows
O1s
ignoring
##bil
zonal
governments
featured
##iterp
##QUS
nanoch
unfortunately
radionuclides
CSD
Δz
recovering
MoO2
2CH2
Coal
Δ2
adamant
Ess
810
##del
nont
Pak
Safety
HSP
wheels
ANSYS
weakest
unchar
ferritic
246
c3
##ectral
airfoil
yellowish
drained
utilisation
##kx
Pharmac
Z1
interacted
benzoate
##eads
microv
trapezoidal
upfield
surpr
##ographs
Eocene
MnOx
Nrf2
OLED
ABAQUS
##H22
##ν2
anomeric
1σ
sugarcane
FAME
offspring
GaSb
SX
refs
Ub
995
βi
18H
shoreline
##ichiometric
Few
oph
invoked
Sar
Grand
##tize
##ller
##thing
Mountains
##agnets
cosm
Had
collectively
proteases
impression
acyclic
glovebox
contradictory
setups
igneous
##iques
ripple
rectification
dN
##thon
nanopow
benzophenone
##abe
ram
In0
adversely
##tained
##sinh
Brom
##rointestinal
##rice
tendencies
Pier
blowing
likewise
rework
polyclonal
favorably
discount
##l1
##anites
13b
stepping
##apotransp
persists
lamb
Gn
Pliocene
chlorobenzene
practic
##ferro
preformed
300°C
1974
superfluid
##keletal
Eagle
competi
unaltered
P6
RBC
separable
##idinone
rhenium
Gem
shunt
disintegration
##KS
RAM
converters
Association
##thio
sulfated
floodplain
explanatory
Jc
Solv
screens
asth
tendon
∼9
Schem
holdup
##∂y2
##Q1
Deposition
Observ
Dar
ligated
buffering
polyether
##itating
recruited
bricks
fleet
corne
Mo2C
##−L
quint
acous
1972
bicyclic
examines
proposals
8d
H8
granites
acetylated
Hoff
##uy
relied
juvenile
causality
s0
##icians
##ract
climates
adsorptive
absolutely
desiccant
resembling
manifolds
Baker
Hd
##aud
lute
KMnO4
print
ASAP
lifted
RTA
6e
##71BM
575
nitrobenzene
##ür
Springer
sapon
##H21
1¯
229
pVTZ
2DEG
faun
Dulbec
Sv
Solvent
Evaluation
PCC
unbiased
volunteers
emphasizes
NCC
Bt
035
Clin
abbreviated
chicken
##enses
deviator
osteocl
##ru
##ipe
amylose
advancement
w0
nanocubes
##aram
pyroph
399
MeO
trains
NEM
Tetra
subband
##agonite
##ichlet
lights
Refl
##AlO3
Nernst
Jun
sor
##othiophene
terahertz
magmas
RCM
XP
desulfurization
darker
Concentrations
NPV
substitutes
kc
Whit
##enberg
lagoon
##airy
unequiv
PC71BM
senes
nanopore
cyclotron
PBT
answers
photoexcitation
AIM
admixture
scrub
enum
evanescent
##H19
##TI
epig
d8
replaces
len
marsh
COO−
##uper
COM
nucleob
363
Δδ
liter
muff
noninter
−∞
Healthcare
illustrative
cattle
##artz
ethene
##3D
ethoxy
g−
pyroc
RNAs
mesenchymal
Hewlett
fluorene
Wigner
##adal
concurrently
##TFSI
##inarily
FETs
3200
ferrim
TCS
Dirichlet
##elike
EMD
##echlor
##apotranspiration
intersect
gastrointestinal
##entricular
thermometer
BF3
SCs
expenditure
PTA
##121
##3O7
##GPa
unidentified
016
Heating
daughter
nucleoside
smectite
concluding
eigenvector
electropolymer
hanging
##period
247
proliferative
##n0
##rine
##aa
ligament
##ageen
detuning
ran
pivotal
Dt
stomach
HBV
Professor
BTO
NCO
##293
OSC
excretion
infiltrated
Dulbecco
##utin
issued
comprehensively
##nik
workflow
Pert
tunability
Mut
photoactive
Simple
x−x
approximating
##3O8
##eces
##γ1
##rofen
embrittlement
##e1
dimeth
pap
journal
μc
photoionization
faceted
detox
##edo
PKC
Fuzzy
I4
depressed
##Ri
circumference
emplacement
ZB
RNAi
##avalent
reproducing
##mit
tortuosity
coronary
identically
##entrif
##orus
TMB
3N
##strate
##auche
x˙
##Si3
undec
heteroatom
Occ
##LI
neurode
bamboo
##ositely
discernible
Hamilton
ultrac
PSF
MIPs
##ilinear
biopolymer
dL
##Tb
Films
1960s
##OB
##xGa
##̂i
EPMA
2p1
steering
##Eu
##imentary
underestimates
2t
##onstrained
b0
##4a
Parameters
PFC
engagement
Nanos
MAC
laid
Less
830
DPV
interchange
stereoselectivity
##athode
equator
percentile
C27
8A
affine
transmis
##isciplinary
eosin
Vector
delam
SHE
Aliqu
##Yb
reductant
C3H6
Genetic
tailed
polyelectrolytes
fug
bolts
spiking
##rys
overlo
landscapes
researched
ablated
5p
illite
##vice
##iden
##acoustic
extrud
numbered
EMT
zeros
TTA
Kap
formamide
messages
γ0
concentrates
cw
osmosis
±10
reset
Tensile
hygroscopic
##fluid
Ont
Fresh
dash
Factor
Sah
gauche
##4P
##Zr0
spars
attains
JSC
Sj
diatoms
maker
McC
##cosh
alkylated
##U2
l1
##dA
##otoxic
##arum
director
coffee
overestimates
carboxylates
∂z
negligibly
sulfone
395
dummy
interle
antiferrom
##∗∗
384
##án
VIII
##bp
##GL
tro
kindly
SEA
UHM
##attering
LIBS
##gm
geology
##uated
multiplic
LiClO4
microgr
##icious
Candid
rj
backscattered
ATPase
Fib
converging
OEC
Rashba
dips
Dan
damper
smoothness
∼60
ordinate
chalcogenide
notations
##ophenes
ROI
money
approval
##copes
##agons
isobaric
267
Monitor
behavioural
Mice
##δ2
polarizable
lactide
chemo
confound
continent
STR
##aptic
PCMs
##frost
digester
ImageJ
Lp
heterogeneities
speech
##∂ξ
Jin
glazing
polycyclic
kerosene
tetrabutylammonium
Y1
aluminate
Range
amid
##iolite
−18
##kJ
Agric
geologic
equilibrate
NO3−
3×3
PPI
##ovite
##ocally
Hur
peptid
ICA
##istance
rigorously
##ycn
hotsp
86Sr
ρi
OPV
##15N
rechargeable
219
Roman
POD
consult
manipulating
Dros
Modified
cel
Eh
spectrophotometry
Production
258
catalyzes
strat
##herin
biomaterial
##WL
##oxal
isoelectric
##uses
methoxyphenyl
HSQC
chilled
3100
##yllium
polyhedral
##DZ
oxazol
flushing
Little
KR
monocytes
##ictive
PtRu
292
hydroxyethyl
##GCG
amu
fractionated
CPP
##talc
antennas
PdO
##ão
337
volatilization
infinitesimal
appreciated
perceptions
ddt
##WS
1τ
client
Double
consumes
deaths
Qiagen
Aj
tedious
ADA
Li1
aminopropyl
##relations
uncoupled
4°C
NCA
housed
WM
Lc
Canadian
##O8
biotinylated
MFCs
Waste
Cop
10c
C5Me
Example
##GB
Guo
locality
376
##otoxin
centralized
VUV
Wako
##meter
3JH
upgrading
derivatized
##fp
Today
cascades
##charge
1j
cellulosic
Determination
FACS
##imeric
boilers
TCM
creatin
unconventional
0×10
initialization
ferrocenyl
uncom
amorphization
294
Flash
adhesives
6F
##reshold
hydrogenolysis
rhamn
dispatch
Catalytic
Atm
ARPES
##keting
CAP
##chloride
HVAC
shots
amido
PFA
fungus
Néel
Ethanol
leucine
CuCl
photolithography
tolyl
TEG
convey
Normally
incomm
##ocytic
observables
transaction
flattened
confusion
niche
ionizing
EGFP
uncovered
τi
Rele
EEG
δD
##yanide
##lan
##Sm
responding
Publisher
Gao
Haw
##WO6
continually
##−M
nanohybrid
hampered
plank
Q˙
isomorph
jurisdictional
lanes
CrN
IK
perpendicularly
297
Substitution
##abase
thermop
Ethyl
Secondary
Parr
resor
ponds
decarboxylation
partitions
zebrafish
pest
3F
qt
SANS
erroneous
##ungst
mediating
architectural
Continuous
AHP
##ocrystalline
DMFC
smectic
accumulating
pt
##viation
bipyram
cytoskeleton
Modeling
##alis
declining
dI
##cont
lysate
correcting
##KO
##orov
functionalised
2e−
solitons
MOSFET
blanks
gm
ECC
methylc
Alpha
ppy
009
268
magnon
travelling
phenotypic
Industries
1∕2
##hev
chromatic
kl
solubilities
lunar
evapotranspiration
040
rotates
Ire
belts
uh
Dick
osteoblasts
glycosides
alongside
412
##obacterium
QT
−t
neutrophils
C57BL
reject
pyrrolidine
disinfection
intrusions
gul
herbal
isocyanate
rp
##4−
##W1
##00000000
kyr
##elting
Nickel
Mettler
Bang
##soft
Mini
chol
dispersal
##ample
##ria
C2H6
##∂v
259
β3
##unting
##IMA
EDAX
instantaneously
##encil
Pluronic
logistics
stilb
GFA
##train
interrog
##∈C
##neys
Thirdly
Binding
imperative
M5
UD
−C
coprec
jointly
traw
neighbours
diastereomer
simulates
mineralized
Whatman
6×10
##acol
decoherence
complemented
Negative
photoelectrons
cutter
Force
splittings
##aq
immobile
SMC
Kub
C2v
ZS
##acerb
aromaticity
Tmax
depositions
exotic
##N2O
reactivation
Wal
##othiaz
sectioned
Amber
2CH3
dumb
##N−1
dihydrox
YS
incision
ωn
Cp2
validating
2λ
demographic
PCBs
##Pro
renewal
enforced
radiance
tensions
##J1
ethynyl
hp
−μ
Alz
representatives
trophic
chapter
##ustration
olefinic
##anch
NTf2
ECs
##esite
Diffusion
##700
##annon
tephra
##isable
Aff
##redict
Himal
##sey
permutation
Box
CAR
Smart
caffeine
courses
Kron
cym
polycondensation
petro
interconnect
remember
exacerb
perman
guideline
WD
XX
paclitaxel
−f
OH2
shake
1019
Bose
dilation
##ℏω
##enet
CH3O
deficiencies
chirp
lethal
impermeable
volunt
Auto
##tebr
##ustain
B6
unbalanced
nanomaterial
grassland
Tom
spectrofluor
disclosed
Fro
preheating
##k−
##stant
delith
unlab
MWh
DEC
scarcity
optimality
progenitor
IH
Jobin
NaF
mound
∂v
##ietic
##Z2
physisorbed
Cluster
beet
1173
microprobe
770
##yrm
builds
linesh
Pg
fatal
casing
##had
peristal
##WPE
sieving
PHE
Dub
Bus
NET
Pers
##inker
Hans
##ampler
icosahedral
immunosensor
SIS
##VC
asympt
BSE
##tring
Hertz
CCR
Conclu
277
Nf
Lit
tet
413
511
Knowledge
##enches
257
chronoamp
stagnant
Br2
abol
eigenm
##uccin
redis
lambda
profits
Organization
supra
SiNx
patent
SiH4
Collection
spectroscopies
guard
RANS
subtypes
##uls
hydrous
mosaic
##hydride
1971
Hm
upt
401
fertilization
propell
accession
Quality
Bet
extrapolating
##rov
338
peri
##iana
Ideally
##ibrational
##ensen
scrip
mutagenesis
##romycin
##butyl
envisioned
seabed
##̄1
teams
hormones
VFA
locom
locating
buildup
underwater
noises
corroborate
DVB
BEA
instruction
Participants
Active
##p0
MOs
FK
C70
SPD
maximization
cemented
stereoc
unburn
JT
ischemia
fingers
nicotin
planting
VASP
dewater
draft
##enclature
Ger
##ources
noninteracting
shoot
ZnPc
diagnosed
##arms
ICS
insects
328
sketched
examinations
##amatsu
##W2
deformable
DCF
maleic
Tecnai
4E
##≈2
race
technically
Treg
imprec
oscilloscope
thinking
renewed
unconstrained
segmental
plasmons
carrageen
thermomechanical
Kan
##obal
scCO2
POMs
killing
outg
secondly
licensed
Flex
agitated
tuff
Weber
riding
##ysiological
frustration
streamlines
cdot
spine
manifestation
tetrakis
eukaryotic
Academy
charts
polariton
neurot
FZ
##hened
920
Prom
εi
##elluloses
##asco
##°N
##eous
##acker
Deep
Sem
##tip
protrusions
BO3
Iber
##Te2
metamaterial
##ston
stratigraphy
English
DOE
Inser
germination
Eur
innate
splitter
integrates
microorganism
intuition
stann
CCH
##inone
DRS
welfare
hydroxylated
rho
##licates
##enewable
ΔI
RVE
prospects
GMR
bacteri
##avir
880
osteoblast
tur
nitrided
465
DTPA
orthotropic
taxonomic
Ile
Fresnel
hydroquinone
exchanging
γi
plasticizer
cyclin
evaluates
##PF
TSA
Perc
calf
commission
UTS
Bacter
CpG
##−X
purging
Testing
##hosphate
##hips
MHD
##K0
nicely
gs
870
##iac
compacts
##olk
thermophilic
bosonic
Cool
starvation
graphitization
PGS
subsidies
Nag
parties
##azep
Concentration
87Sr
dh
Film
##RAN
##kB
boreholes
nd
inducible
pyridin
assimil
BLA
isothi
Kc
Celite
ideality
pO2
Examination
potentiostatic
##amellar
rewrite
Aqueous
Δϕ
##forth
##S8
100°C
shorten
2800
biocon
LGM
Seven
##total
15a
dithiol
α3
dairy
##Vi
woody
attaching
137Cs
1540
amelior
day−1
cartridges
BaO
LHC
monohydrate
Rou
##optim
##octyl
alternately
##sibilities
262
EOF
##illers
##−u
X0
tuberculosis
Laplacian
##ocarcin
SIF
Shi
##haw
sacrificed
salient
disparity
mineralogy
Wiley
##−f
Staphyl
CBD
##istor
##leness
contracted
retrieve
##A0
1486
metallization
diastereomeric
Ostwald
gland
intimate
enterprise
achiral
##abic
lever
Daw
multiplicative
Assessment
sider
nitriding
SO3H
Ground
3E
##forming
##TAC
TSP
planarity
hydrologic
campaigns
SLS
misalignment
##pz
solvers
##atisfactory
sinh
ethylenedi
challenged
CFT
fibronectin
scour
pneumatic
inspected
aa
accumulates
af
MLP
acquiring
restricting
i1
verifying
programmable
##erved
methanolic
hapl
##olone
intelligence
amylase
##ffffffff
##umber
bleeding
332
##arenes
##ibles
Animals
tsunami
inland
Hou
Advance
putting
##125
Strait
lacustrine
##Ks
1−1
Lead
Yvon
##flu
signifies
bold
Amaz
Tab
##NM
upwind
diamonds
−λ
998
Beckman
hydrotalc
arriving
tides
##igo
alcoholic
Paleozoic
novo
3m
logs
##atric
##enth
somehow
3g
susceptibilities
helicity
boards
##atech
confluence
infar
polyol
STP
Ireland
episode
Beam
Mas
northward
##ourse
BiFeO3
##NV
daylight
amplify
discriminant
##idopsis
##sulfonyl
422
HTL
##PT2
##02π
Immedi
BSS
butter
dialyzed
##iloxane
epi
EDM
ESD
##∘C
ascrib
##L0
analyst
Ω2
sacchar
Δs
fluidity
##reasing
##3d
Mie
organoc
##tw
oppositely
MAR
intraper
##ialysis
Q0
ESP
##Ca0
CMA
tetraethyl
restraints
desiccator
Win
GEM
Version
274
plen
aragonite
slump
diazo
weakens
Fuk
σs
collections
reinforcements
autos
northeastern
##anionic
##ila
tobac
ask
bioethanol
ωc
##¯n
potentiodynamic
sketch
Baltic
elapsed
lithiated
feeds
responded
##C6H4
200°C
GNR
##igated
bladder
signed
Fano
##roliferative
questionable
pipette
UHMWPE
##LG
##¯j
MEK
##thermally
devoid
cos2
MIR
Mats
MoO4
DRIFT
##Ba2
quartet
ascertained
phr
contributors
ejector
transmitter
tR
geo
##P5
ITC
##assays
skill
multin
crossings
ODE
unaccept
Kre
##utures
swimming
straining
zooplankton
##ceans
Peters
##ophy
exon
Particles
Drosophila
quatern
PCS
C29
experiencing
LSCF
propulsion
therapeutics
concentrating
firmly
Strateg
AOD
prefers
asset
cancellation
UAS
nH2O
Corning
S13
##icting
b3
251
glucuron
undercooling
LCM
engage
NQ
Tiss
##105
FAD
decentralized
Lic
pN
investors
Vb
aw
redshift
Prep
tackle
##hoff
tempering
##Fi
LiOH
corrugation
AZ31
genu
ownership
##FIS
fragility
Roy
φ1
anatomical
FSW
##ulence
peristaltic
decane
borders
##marks
usable
Reson
Bi2Te3
sublattices
Vf
T7
Li2CO3
spheroid
##fficiency
aptamers
1q
−100
borane
Traditional
Enc
Introducing
dθ
Mem
immature
Greenland
circularly
Alzheimer
Sir
##onents
##uda
Ultras
downwards
tobacco
microgels
LiNbO3
1273
oligomerization
d4
spanned
##ascul
##arial
##arate
clearer
depri
Excel
Div
HEMA
KNO3
remanent
##nf
##102
μW
TPC
trinuclear
Significantly
Kam
Dc
##¯m
immunoprec
isoform
multipliers
schedules
030
eigenfunctions
Bs
HLA
railway
Devices
δ1
Spatial
propeller
dΩ
landing
##vices
tRNA
projector
−25
dams
##oblast
##utory
elicited
##odym
quiescent
Rev
JNK
commercialization
NU
undeformed
tire
kF
neo
rights
transc
seedlings
cantilevers
sweeps
FEG
desert
village
clamping
Clay
##opsy
Impro
PDOS
cyclohexanone
deteriorated
##v0
##rimp
skewed
INS
Islands
unint
MNP
trimers
##illus
epoxides
butyric
Basically
NBT
##FN
lightning
immunohist
Database
Heck
bould
i∈
compactness
tempered
##→i
##calc
Activation
1V
deionised
realised
##hof
practitioners
SFG
ansatz
BMIM
compl
535
##omed
preceded
HTC
virial
register
Size
excip
Essential
PMF
steeply
##x∈
overload
pmol
ρf
isent
017
layering
##C12
NiCo2O4
Dn
silicic
quadrant
gab
onshore
saliva
Swiss
favours
seiz
Wave
Cro
##adiabatic
diastereoselectivity
0002
##zy
dk
blur
Ln3
533
sweet
Cy5
choline
Synthetic
cuprates
killed
fermionic
##ordinate
##D0
photochromic
##×10−7
Base
electroplating
phone
368
chemok
intensification
metallo
##SiO3
coupons
stakeholder
coordin
truss
##4A
orally
Malaysia
deleted
##H26
pV
ELM
TiO
CCM
##eco
##isecond
ascorbate
specifying
granit
Mixed
Arabidopsis
reh
overflow
ρg
Enter
UVA
polygon
nutritional
##nam
##istan
##weg
diffractograms
##rod
CDM
penetrates
peric
outcrops
curvatures
unloaded
##gested
×100
attempting
MMC
funded
##asi
exported
anthrac
southeastern
860
##bad
##μ1
NiII
Cases
omega
hydrolysate
LLE
richer
##piper
4p
##orane
2l
##ean
dG
conference
climat
furnish
##easible
sinter
THP
LY
##quet
entails
Traditionally
approximates
agreements
Quant
deacet
USD
##otin
17O
Qualit
UCNPs
neighbourhood
Industry
Um
##leading
−60
innovations
sensitizers
60°C
NEX
unreli
focussed
radiolab
accidental
detects
Shar
larval
##∂∂
Drude
Wag
biopolymers
10−12
union
02°
sidewalls
5s
##EST
Bohr
tocop
steroids
throat
##Nx
neurotrans
##aten
codon
3h
Kutta
Mü
##su
computes
Columb
freest
stiffer
Sac
sulfates
Δy
progressed
NFs
##ppe
Correlation
amplifiers
CTC
##cn
##orite
Prism
seepage
EMI
estradiol
augmentation
Integrated
Ng
Rac
PMe3
1ρ
molybdate
owned
liberated
biosensing
triphenylphosphine
Change
##ucks
Xen
px
##Lab
structuring
prototypes
##σ0
Cg
Nitr
##jects
##alks
OPE
generalize
opinions
smoking
383
Runge
Conn
445
ankle
##tonic
##reted
Variation
Facility
abnormalities
875
elegant
sols
born
Evans
##ague
worker
Stein
diatomic
##uprofen
Ty
posts
sheared
##oxazole
##benzoic
MPP
Vien
##Pu
degeneration
military
MCD
##atiotemp
disposed
##cy
##omposition
unequal
1⩽
OMC
Chile
Cenozoic
DY
soda
ZA
Internal
Bq
Austria
BCA
##azide
2V
cadherin
NSs
cloudy
Frequency
asphaltene
hin
##uding
IMS
2δ
molecularly
Biomass
Marine
spillover
associative
PbI2
competit
Hsp
cusp
785
palaeo
RCC
monometallic
10−11
##ello
descriptive
##oxicity
porcine
##icon
reformer
##−I
Asn
348
imines
Looking
conceivable
Math
Δh
unsymmetrical
CIP
multiferro
localize
reflectors
scholar
Gar
J3
NBS
BTC
5G
##ufacturing
Jackson
protects
PDMA
≤0
FX
permeabil
##≥1
##endre
6D
##icalite
##∫d
##μs
backbones
Hamamatsu
##⋯H
##edy
Characteristic
transmitting
Bj
PDGF
consor
249
interconversion
diffuser
Plat
Accel
masks
##An
boric
Increase
hydrothermally
Scot
923
arenes
widening
zeroth
spheroids
Scop
tpy
PDDA
mg−1
HCOOH
fluidic
DCC
306
biasing
conceived
bromides
##qui
##aques
##dU
borosilicate
denatured
##lov
DMP
extractant
Lan
μS
206Pb
Rhodamine
Fren
DAP
##−vis
dimethylamin
HEK293
##λi
synt
xenogr
##≠j
##1−y
Diego
nanol
Variations
foliation
COF
arose
Pap
∼80
##grass
700°C
succinate
altitudes
##tised
doll
floors
inks
Brad
Keg
Vul
burnt
271
subcutaneous
4G
FIS
JASCO
regenerator
##burgh
##arburg
##enzyme
stray
stearic
##w0
tj
η3
η0
##ario
−ρ
exiting
##herol
pj
##RH
polygonal
Dp
nl
##eds
TFC
C−H
##owing
##osilicates
SSE
orientated
dunes
##toral
millisecond
permitting
Pyrex
##dh
Ern
≥0
vj
suggestive
fictitious
unavailable
045
Road
elder
NASA
##ogap
cropping
##CG
Ia
temporarily
CQDs
regioselective
enolate
##ophthal
protic
retreat
x˜
photodissociation
absorbent
e−i
Member
##phal
SiO4
pyrazine
Hg0
lavas
##best
##blance
persulfate
begun
dv
##olo
flattening
faç
##orms
UiO
Annealing
coincided
deviatoric
exped
estimators
abandoned
tone
τc
abdom
Cad
pyroxene
##atos
canal
carp
##etres
Working
spectrally
TAG
##amoto
##PSC
1000°C
##humid
Herm
sen
wors
interruption
CTS
nomenclature
critic
tradeoff
Greece
##ahl
carbonized
Ii
403
##fan
2018
diluent
durable
rearranged
Thick
gage
aberration
deteriorate
frustrated
##ω1
PPP
prospect
polyhedron
ZI
dP
attainable
UCS
##−K
orogen
xs
Staphylococcus
Photoc
isotopically
tomato
Vit
pervaporation
##mafrost
##ospin
biophysical
##trimethylammonium
Myr
ships
Si2
standpoint
##oproteins
Vienna
414
Sav
##H25
emits
##igenic
pathology
cytosine
spawning
inves
SSF
titrated
snapshot
rougher
##¯k
oxidations
pk
direc
Argen
##ocrine
overcomes
##dense
##clerosis
Ls
##enta
Thermodynamic
Synch
bmim
carboxymethyl
stabilizers
QSAR
##perg
PIC
±3
gyration
chemotherapeu
Directive
##asm
inhabit
interchain
topologically
autosampler
##O12
trou
intersecting
injured
dicarboxylic
automobile
fourfold
##A3
Pk
##DO
Conver
UV−vis
##nk
aij
remot
##denite
SRO
Keggin
JP
FMR
heterotrophic
glycosidic
spatiotemp
masking
##lay
SHS
##BG
salmon
Amino
##lc
conduit
BDE
##heel
455
P123
##ˆ2
initialized
prognostic
microgl
∀i
emergent
controllability
##ˆ1
deceleration
αs
requested
ingots
IW
##lipse
QY
ot
Grain
Ach
lm
##areous
NaYF4
##DL
##τ1
cabin
##soil
Review
scalability
##ϕ1
contrac
##odymium
nanofl
Mulli
291
APCI
033
NCM
##atrix
marketing
Sinopharm
coloration
annihil
inch
orogenic
commodity
fretting
fertilizers
prognosis
Big
##isomerization
hydroxyls
tentative
pseudopotentials
LDOS
##hom
thiazol
##cm−3
SLA
##ucker
absc
##edance
cyclopentadienyl
9H2O
dea
elastically
##yster
lifes
##ailand
Vorono
Separation
##i−1
##obe
##ften
##Ni2
Diagn
Strain
propagator
pHs
MCH
##bound
545
parasites
Zheng
encodes
conclusive
##ios
##fj
baths
##Ex
CDC
disciplines
comply
X3
wil
microtubule
##spectral
321
Innov
20°C
industrially
##eps
sexual
letters
##ours
π∗
beryllium
##y3
Educ
μV
Extraction
hosted
BBB
epidermal
asthma
triglycerides
324
g0
fibrinogen
##∂Ω
14N
constriction
ventral
Pp
grafts
Cu0
##ymore
Shear
semim
shoulders
Walk
Cycle
separators
2300
SFC
UR
Dm
Kirch
updates
##entry
irregularities
##actin
noncovalent
amend
##mog
Higgs
skewness
plaque
331
372
Carls
uniqueness
322
281
L10
conducive
40Ar
glued
GAPDH
##−Q
simplifications
gadolinium
##plate
glucosidase
Dri
MEP
starches
tetramethylsilane
inacces
MIT
Li2S
anisotropically
##ospecific
bosons
##adish
L5
##Pad
Transfer
anymore
CPS
univariate
Na2HPO4
279
Nav
Probably
Thanks
FeS
PAS
##g−1
contiguous
submarine
succinic
overshoot
regressions
Russian
wrote
solenoid
nonionic
##obacterial
nin
physiology
conserving
Windows
HCO
Compton
photodetectors
−q
##icals
overpotentials
##ité
Mulliken
extents
dosages
##otent
##β3
##otactic
##oser
##̄0
##urement
homes
trafficking
10th
2Fe
##σ1
coking
Peng
inject
explosives
landslides
##ERS
##∂n
Ot
incommensurate
##floxacin
Loss
husk
nk
propionate
∇u
bioreactors
memories
rehabil
chromatographed
Often
ΔL
##ophane
dicyan
##emis
Sen
Conversion
UPLC
dw
Ih
competent
renormalized
fog
proteasome
Cry
urethane
DOTA
hexafluorophosphate
##isker
8B
bc
##ILs
maternal
##¯¯
PPh2
photodetector
Immediately
##cience
##anda
Li0
brevity
##̄2
024
∼13
##aman
seq
antisense
yttria
seismicity
scored
selects
mb
##oxidized
multich
bends
PX
ripples
pf
log10
imidazol
cocktail
HCHO
delicate
Thailand
CSR
paly
Suc
##yclohexane
Franc
painting
specifies
Ag2O
electronegative
breadth
##ℏ2
Pic
##izabilities
4N
TBC
Progr
inhal
Flo
σz
arylation
ε˙
##ampling
Tx
disaggreg
ty
##ayan
Ca3
7Li
GPU
spect
retrofit
girder
decomposing
permanently
dication
8×10
occasional
##Tf
carbonyls
popularity
CSC
oily
peen
Gro
responds
photovoltaics
Assay
##cks
planted
Record
##θ1
Notch
htm
1260
torus
##calation
flaws
repository
9000
ischemic
GeO2
TSC
##assification
Qing
4He
Count
402
HBr
routines
Target
mast
pdf
WWTP
channeling
alternation
Raw
##ussion
thiocyanate
ACA
O5
unrestr
foundations
14b
Δ1
∂∂t
##iterpen
Christ
posture
shrimp
##dera
CFC
spinodal
mush
oleate
Tukey
connectors
##dF
polyox
sr
##apore
Cab
slave
normalizing
occupational
##iest
passages
sulfite
Microw
DCB
##okes
##acon
diols
occupancies
##Hx
committee
antiproliferative
gar
Alg
TFSI
##tetr
cloning
encompasses
alve
refinery
Limited
propionic
follic
dξ
renewables
##ochem
polarizer
##zymes
envelopes
∂ρ
2j
##ère
Grid
restraint
permafrost
35°
MDR
millimeter
5S
JH
##olites
proteolytic
opal
brighter
serpentine
LiNi0
semiclassical
307
Kolmog
Gamma
selling
siliceous
##atil
Technical
Opp
Synchrotron
##seradish
mane
FSP
Pec
Precision
suspect
458
pulverized
Barb
resorcin
outlier
Identification
##gans
endurance
PbO2
Taq
cementite
slits
thymine
##H28
eleven
unob
ECP
##bu
intentionally
servo
SMR
CAC
hippocampus
Majorana
##ehm
suppressor
##FB
wings
cogeneration
495
Rate
##ounce
HRE
glycoprotein
334
lanthanides
CH3CO
##ϕi
flowers
emulsification
##ifteen
TPB
unstr
verifies
Effective
heterojunctions
myr
##odon
Fraction
675
PC1
##Zn0
pum
##astatin
interglacial
##KT
505
DBP
##illips
MOSFETs
##yx
returning
##ethylamine
##amped
##rotene
##4V
Bou
dissolves
APD
ABTS
T5
irreversibly
emittance
britt
volcanoes
wavefunctions
bubbled
−z
Renewable
Fuj
Structures
##assie
radiated
Contact
polyphenols
Carboniferous
DSA
aside
cv
permeabilities
Grign
asphal
him
reducibility
thf
Ag2S
priorities
dir
mines
recovers
##rogr
resemblance
lithospheric
269
##rogens
##absorption
hydroperoxide
Procedure
inconsistency
##ocer
sext
ccdc
decoration
intrusive
lipophilicity
WHO
##EO
##illance
##eton
distributor
##enite
nb
##−π
asynchron
940
−y
braking
##G0
unexpectedly
pod
hypoxic
UM
optimise
Gs
##onene
encode
2O2
travers
ψi
faulty
VSS
sensed
cleared
uracil
##Xe
Ph2
Io
Kumar
OPA
DCE
Sud
##116
Orange
encryp
299
CH3NH3PbI3
Pas
tries
Att
Voronoi
##̲̲
##ilayers
Mang
NMe2
4R
##verat
j∈
mé
RAS
impulsive
incidents
1−exp
labour
calcareous
ENS
##̂2
Mx
##Ny
##endorf
nucleating
##MPa
micror
edible
ANFIS
Scopus
M−H
isocratic
##ilin
grading
##onded
##ubility
demethyl
##ggish
##ometries
fulfil
##aver
SPT
shuttle
pD
Biod
##ithi
tocopherol
quasiparticles
corporate
erythrocytes
ωp
##isible
parametrization
κ1
resident
weathered
subsidy
Avr
##ZnO
GlcNAc
##Co2
arsenate
1023
##ubbles
comon
ethanolic
DCS
Vt
∂Ω
bituminous
Computer
BMG
roofs
multipole
granulation
≥99
##elian
MDS
synergetic
clearing
Patients
##WF
##opoietic
∫Γ
degradable
Eqn
3300
615
southwestern
DPD
##lege
logging
##urin
mTOR
ToF
EMA
encapsulating
connector
##zsch
purine
dppe
topmost
TQ
Legendre
PO2
Alloy
maneu
##ZrO3
##urus
PbSe
##mol−1
hab
##rett
cyste
IBM
cyanobacteria
##saturated
azir
##kins
STAT
xm
PCD
FeSO4
##H24
cocaine
photoproduc
Gb
exhum
regenerate
monitors
prevails
##tringite
hm
historic
Sam
##eto
Phenyl
hexahydrate
sheep
4800
Peaks
##liness
##oluene
stones
Visible
queue
decarbon
ferrimagnetic
##eolian
sitting
traverse
postulate
Mart
sluggish
brittleness
anodized
##xs
elderly
fills
Carr
jk
InSb
##3C
phenoxy
##→R
##opor
carcinogenic
Singh
##lacial
pier
voluntary
subduc
##tze
##requency
sees
identifiable
##reous
##rij
##atments
insolation
Warburg
deepest
358
Adj
elasto
eman
DAD
WG
Mn2O3
##udi
##graphs
##irm
player
RuII
Davis
maximizes
hyal
contextual
Chitosan
352
magnetized
crisp
−γ
##uto
RCP
Bog
##r3
C3H8
Cj
Friedel
Monitoring
CLC
stimulates
benzoquinone
BuLi
restrictive
Term
GFRP
hyperbranched
Swedish
Los
hindering
##oen
Aluminum
MPD
##X4
342
##ephal
chars
3σ
invariants
SiNWs
Office
combus
ALA
GraphPad
nur
carrageenan
Dil
apertures
crowding
terminology
oxidizer
##eh
##uria
τs
uncommon
rug
##ishi
triplets
keyw
Gran
##flower
Define
Sug
16a
##engers
ecology
splicing
L12
chaper
##QU
Associ
Wit
spatiotemporal
356
deviated
CBP
thermophysical
CLSM
singlets
δ15N
##OTf
organisations
Pall
responsiveness
529
analyzes
##acks
licenses
remotely
##jective
kbar
overexpressed
participates
granitic
##veratrol
toxins
##annual
##1−xC
##meyer
molds
elusive
pushing
shutdown
Toledo
imports
urbanization
corrid
Grignard
Cyp
bilateral
revis
dispersant
Excess
##Lu
xH2O
complexities
MSN
alkenyl
Tech
##opoly
robotic
san
718
Sak
##orst
CN−
##loying
inventories
1×1
##anthin
Tow
DSCs
W0
criticality
suffering
##octane
CoCl2
F127
Neutron
PJ
1l
SRT
MEH
exhausted
crosslinker
cultivars
clogging
thermograms
Sb2
raster
##φ2
∂f
lightly
ΔU
Cott
418
activators
##ophysics
Selective
327
PSII
inund
##alls
FQ
SMART
Frenkel
GaP
80°C
2ε
Nort
Kolmogorov
NOS
invalid
Ultimately
nonp
twinned
##jing
3T3
σr
##ese
microanalysis
offline
Ped
RAW
lamella
PA6
C¯
##allium
spallation
inlets
spatio
##oderm
sulfonamide
abdominal
∼300
pup
university
website
XT
Euro
classifications
Board
phenanthrene
judgment
Calcium
Fort
northwestern
arrived
cruise
Wet
collimated
CaSO4
##icz
##4Si
hoop
halogenated
microbalance
mRNAs
Tes
Calculation
ros
CSI
interst
Evolution
mismatched
Dynamics
uric
cash
generalised
wanted
##hydroxy
heuristics
dehumid
##itrile
unpredict
analges
PVT
##XX
ZrB2
iNOS
homod
##elic
hat
##aines
Richardson
##azan
propri
##atson
odds
−n
MCR
Solving
subcellular
CCT
necked
evoked
##phos
PEGylated
ISS
Volume
missed
enantioselectivities
DZ
Quad
##fying
pyrrolidone
##otopic
366
##functional
SRB
σn
nonadiabatic
Device
bell
Inspired
DMR
mediates
LLC
magmatism
QR
##rem
rhod
nemat
##−j
ferromagnet
Df
##Dt
epimer
Integration
Forest
Reactor
eject
diagonalization
##ocarcinoma
petrochemical
heteroatoms
dechlor
##adiated
pinhole
thorium
φ2
flavor
378
diagenetic
yk
261
##NMR
impractical
nitridation
APA
Δu
microalgal
Zi
PEA
fluoresc
modulations
αn
aprotic
silico
Abr
profitability
##azines
certainty
PHI
intermetallics
cmc
elegans
purchasing
mobil
phil
concentrator
Lap
αk
##KM
tied
densi
##Tn
##crit
##olvation
department
providers
meridional
improper
itin
vermic
unreliable
responsivity
completing
##oglobulin
##udd
disposition
MnIII
FPGA
##En
##extraction
dibromo
programmes
Cape
calibrations
repress
mills
filamentous
##issa
ratche
##NAs
isentropic
##akh
Condon
nanofibrous
Chern
estuaries
hippocampal
NSA
mapp
##azo
Wagner
Buch
2→
bidirectional
AIC
FCM
−V
Asperg
##mA
j−1
novelty
unsupp
atherosclerosis
Kp
SMS
##dish
Niñ
DBS
ANNs
isoprene
yaw
ArC
H2PO4
ranks
fet
dihydrate
oceans
ventricular
workload
photosensitizer
emotional
Hessian
B5
subtropical
mari
requisite
Researchers
unconfined
sourced
M06
admittance
##mix
##H30
hammer
nn
HEA
mobilization
SSS
indigenous
flexure
chemistries
tellurium
Chap
cher
AMD
obliqu
Burke
##ograv
555
970
southward
transg
nonb
initiators
coastline
faradaic
SDA
myosin
A6
##Ti5O12
ourselves
##dust
decrement
900°C
nr
317
fluorides
citiz
meshing
rheometer
##κB
underlined
PPS
##oleptic
##amation
effected
0n
nf
localities
Rio
aspart
disposable
prosthe
##ordan
lifespan
##yP
phyll
cP
rims
epigenetic
Aliquots
Aur
muscovite
attrition
Raj
Gd2O3
Portugal
chelates
strut
RDE
ψ1
conjecture
S2−
Abcam
outlines
dissected
Nx
intricate
checks
Diamond
Pop
SAP
statutory
tetraphenyl
∫0t
##inked
10B
##IX
##ternal
##222
microelectrode
R5
TFE
∼70
Horiba
DMD
photostability
Probe
thyroid
##exponential
Salmon
NiCl2
Distribution
uter
Shannon
MIM
Soxhlet
Induc
bursts
##itis
irradiations
##LH
##rows
electrokinetic
344
326
eig
##uvant
subgroups
##KF
residing
meal
Microsoft
##MCD
KG
Nile
Lact
##CAA
wellbore
BX
coupler
##idate
##umina
η6
##tities
grip
peer
##fluoro
dodecane
confine
##Y1
OG
tray
##mT
subtype
##omfort
prox
holographic
023
N6
BIM
##3B
##ogenes
##eb
##Ei
416
terephthalate
Uncertain
NLS
grasp
dyeing
multivalent
Singapore
Accurate
silicalite
SnS
communicate
topographical
Serum
Hamiltonians
M6
##zinc
∑t
Ag3PO4
Gln
somatic
gird
manganites
Korean
##inz
replicas
Stan
chondrocytes
mangrove
aero
vn
2I
Wei
1969
BiOCl
FIR
##elen
numbering
recombine
wholes
suture
##odel
placebo
foraminifera
thereof
3n
FRA
quantifies
discriminating
MAPbI3
IrO2
famous
##FAC
stripped
revenues
NPD
##electrochemical
σc
genuine
CCL
pyroelectric
colder
mating
whisker
xerogel
Relatively
nascent
developers
cys
Terr
Lx
silicene
justification
−σ
##RB
##̇i
H9
tetrafluoroborate
Sensitivity
##imidine
##adentate
electrooxidation
recognizing
integers
##°E
##generative
Correspond
Ken
millions
930
Watson
309
premise
CH2CH3
IMP
Mun
metamaterials
Ionic
trait
N5
femoral
nap
##erex
MnS
##ucleotide
silty
Exposure
trenches
scrutin
LCC
##KY
Kramers
malaria
ger
Bu4N
multitude
launch
1080
Phillips
Aspergillus
OCT
##mond
##withstanding
∼11
polarizing
−D
HIL
##ρs
succin
ICR
misleading
Coupling
Amb
coalesce
##̄i
##blende
d33
hemicelluloses
ware
##atigraphic
colonization
photoble
##icked
##Pr2
C32
drifts
adapting
Enhanced
Archimed
yolk
radionuclide
ROP
IDA
MCE
Measured
##bedded
kerogen
corp
##∂p
443
kits
Pri
skyrm
##Srx
##W0
##anne
relaxing
396
ICC
pept
mPEG
photopolymer
AND
RBCs
normality
bioref
workability
##104
absorptivity
testosterone
∑α
pelagic
##berts
microl
##Cu3
nj
dependant
SnS2
neurological
threads
433
backgrounds
##aba
constructions
##SCN
##embranes
dipyr
observes
LMC
##asions
##iolis
alignments
internalized
##eletons
bootstrap
E4
Glucose
dike
transects
FDTD
##oulli
VDF
808
attaining
Add
##sin2θ
##coplastic
clinic
Pt2
CF3SO3
integrable
CHCH
gon
50°C
serr
amended
##GCT
MBA
##ctan
undetectable
universality
reducible
epitaxially
trips
disassembly
nation
##aret
carotene
constraining
Arm
uncharged
landfills
Moon
2SO4
Curve
associates
compromising
Spar
##obis
sigmoidal
lithology
stiffening
timely
unbounded
DDS
Fan
stiffened
mf
Ow
travels
vk
##isin
SPH
Garc
butyrate
disulf
completes
Response
ibuprofen
cue
##Al2O3
##garis
##atites
paramount
cetyl
BAC
Pharmaceutical
bipyramidal
φi
hydroxylamine
AMR
exploratory
##lase
##izon
LaNi
##mpirical
−H
##tex
demagnetization
Thom
∂p
404
PbTe
Turn
##M0
10A
2Cl2
dH
hap
##tn
kill
##pass
409
Carlsbad
tailing
thienyl
##PV
Microwave
SSI
##3Sn
ACO
HFC
Pore
clo
speckle
fossils
Ban
Janus
luminosity
DAC
Medicine
fiss
stayed
##N8
bruc
flammability
bn
iPP
##∼2
astrocytes
ρ¯
SHELXL
riv
sell
knot
ettringite
##CH2OH
LSV
##asian
##crystal
C5Me5
PhC
documentation
saturating
highway
##̂1
##aden
##3O12
##Y0
requests
Anton
SVR
INT
elicit
Bow
ux
u˜
−r
convincing
351
pF
threonine
disconnected
411
BU
lysosomal
irrigated
piping
##Co1
bleached
Bernoulli
##±3
453
∇⋅
tourism
##ulators
CCP
R13
Porous
MS2
δi
Zn0
##∈Z
341
CLA
oscillates
PARP
Important
Residual
instructive
4×
##onon
##00F
barley
##coat
DIP
7×10
##hedrons
AIE
Tax
A1g
War
queries
##oka
telomer
##PEI
Correspondence
SCP
i0
##rew
depolymerization
##bib
##afluoroethylene
annotated
##RAS
##inflamm
725
formalin
acetophenone
caught
##infor
##VDZ
DBU
##ammox
GMP
347
slenderness
electroluminescence
##rology
Composition
constructive
Order
##versy
vulgaris
Marko
##eav
reactivities
transcribed
1223
NaO
helping
zk
##onder
interfaced
αh
photoelectric
survived
nT
pentagonal
Variable
##LEX
authority
impactor
Czech
408
interlayers
MTBE
tanh
##amework
nitroc
##seed
Close
oxygenation
biotic
collapses
depressions
sensitively
complication
interpenetrating
Around
EOM
Stable
sont
Belt
sevent
MWCO
profitable
Me3Si
PAW
molded
Jasco
Nos
asperities
##anin
extractable
##lutin
TIR
phosphonium
acr
electrop
Steel
flammable
arabinose
##edges
##ief
arthritis
311G
orthogonality
2Cl
hydrom
nN
incurred
##avg
parabol
##onically
attractor
biot
inaccessible
−70
reddish
redisper
##itals
lithic
limestones
thawing
##inea
Gm
magnetisation
##oxymethyl
790
##ocryst
surprise
unimp
Candida
dwelling
necessitates
Univers
trucks
ventilated
alkaloid
pozzolanic
Tt
SCI
discomfort
##ρg
unfavour
2700
##ogenicity
coprecipitation
burnup
mitotic
invertebr
MED
polarons
−ω
##trip
Stability
Broad
IEEE
Sd
polymerizations
Alternative
homologues
xN
remanence
Quanta
##h4
harness
1030
##icans
##arts
sponges
Lorenz
Clean
Hx
##elin
agate
baffle
Pad
##alcoh
##urfact
HFD
##oxon
FAC
##2Fe
condense
isolating
Institutional
Sediment
aids
photoanodes
517
##oluminescent
##GAA
horseradish
MnII
repeatable
Education
Sab
HPV
declared
obtainable
clastic
fort
Fe4
Plastic
##earch
1x
RAP
diphenylphosph
sill
026
delim
fingerprints
HBT
Qin
rationalize
anharmonicity
whey
Catalyst
nZ
##ück
MTX
LiBH4
fixture
j2
advent
excludes
encounters
slots
##gradation
rounds
nucleon
Problem
v¯
Chromatography
normalize
457
osmium
##RPD
##ensely
billet
Panel
##∂X
multistep
impart
unsatisfactory
MER
Rhod
##olean
identities
##uccinimide
complicate
##scaling
Boundary
slowest
##IO
Trop
##erometry
rin
kj
ZnTe
senescence
ε¯
deox
sphing
anthra
planktonic
Steady
PEN
γ˙
hydrotalcite
##×N
died
mm−1
intercepts
nanogr
##aska
##orge
Vd
Γ1
Cβ
##fusion
ART
##CAG
demanded
EPC
mmHg
a4
shRNA
HFP
fp
gol
creatinine
##aution
thioether
bracket
##othiazole
insectic
matrixes
##hesion
eutroph
##Rb
Analogous
blown
##ifts
luminous
procurement
##ubic
##athy
##Ω2
##lyc
1−ν
EZ
nonin
Chiral
intral
##icits
peeling
controversy
minimally
goni
##anoyl
flies
TAC
∂w
BH3
Coriolis
##∕cm2
contrasted
spanwise
Trace
fk
overexpressing
hydrazone
##mus
miniaturized
revision
Kun
##α0
magnetostriction
impede
psychological
park
##hept
εs
Robinson
sawdust
##hill
##olumn
flutter
##asin
Yangtze
tok
roughening
Yuan
##obutyr
##opr
x∗
Kw
##ofluor
unlabeled
##106
##imin
notes
##rotected
buyer
hexamethyl
##ussa
struts
pret
pedestrians
electrost
Inspection
−h
onwards
##dimethyl
culturing
##f2N
seminal
##̇2
Solvents
LPC
DBD
Berry
##04
##long
397
Tun
deactiv
mock
021
Fp
encompassing
Indones
##anthus
##var
ADS
Biotech
##lung
nitroxide
rolls
##rier
Δτ
yarns
towers
1968
unsupported
vaccines
chelated
bronze
entropies
##bodies
354
##k3
##θθ
transplanted
Chic
Proteins
surveillance
Florida
##t−1
Pv
Cord
##∂w
##urian
Vr
town
mucus
chimney
##urrents
Ball
Investigations
torques
unacceptable
boiled
GWP
##ollary
schools
preventive
##iped
##oneed
Rho
airway
Michaelis
OCO
##asculature
prevail
competitiveness
oscillate
##tinuous
viscoplastic
precipitating
excavated
License
##ulted
##bis
060
n→
diverge
tup
##otan
##allyl
##yclohexyl
shop
Ish
Room
stromal
conspic
Illumina
mB
photoiniti
disj
##itherto
educational
methine
##acycl
immobilize
WZ
##eder
localisation
Ez
intraparticle
obese
Absolute
##tenes
##oba
codoped
buoyant
##physical
##estone
Calculate
manipulator
Instron
367
plutonium
ΔN
safer
endothelium
Vn
Xyl
certification
LK
1965
CTD
Map
##ungs
opi
desire
LAO
1Δ
Q̇
AcOH
Sustain
##05
Hun
##enith
##iempirical
Markovian
Referring
11c
chronology
Mong
2q
fittings
repaired
UTR
##anis
fugacity
porphy
TIC
erosional
##heated
occupant
BER
aeolian
##asite
witnessed
quoti
stemming
septum
−T
edu
poled
heli
nucleosides
overpressure
crucibles
observers
##asil
modulators
##omyces
pebbles
##olide
eastward
philos
chromate
clathrate
HSV
##ela
513
linole
auditory
deficits
entre
##SO2
chrys
pep
##TCT
admitted
nighttime
offic
Bi2WO6
Zeol
horse
SSM
##uber
##ej
##μi
ICE
∼16
##ineries
warrant
FER
##orphous
caldera
threading
Composite
Support
4g
dj
decid
arrives
##thr
pigs
photoactivity
SRS
407
retardant
carotenoids
vitreous
Quantification
##berry
Dion
integrations
gapless
##TTT
petrol
bluesh
xp
CD11
slips
mycel
acrylonitrile
perce
##Ni1
Rib
##ravel
##BH
nanometric
δn
prefactor
CdO
Ho3
374
flooded
augment
4h
##ayed
##Wi
##cast
##ensin
##bn
CDF
319
##udinal
9d
anv
puzz
min−
Hopf
Equilibrium
##VECs
AZ91
BTA
THC
Tool
angiogenic
##menite
College
TiOx
jn
Adap
Isra
##ocol
Generation
##onuclease
microcrystals
photochemistry
Iceland
νs
∂r
C33
##angles
##hand
violated
Fe1
1967
upright
Lig
ghost
feet
nanocrystallites
nBu
bioin
multichannel
##uin
Dual
transpiration
##Mi
subbands
rescue
−c
nitrogens
Take
phosphines
sticky
##onn
Helium
p3
ramping
cresol
##alytical
pharmacokinetics
unexplored
snap
warping
##asy
resistors
##opolys
##PSCs
##inded
maximally
Reducing
albicans
Na0
635
heteronuclear
agency
##ardt
##ceptual
pyramids
3T
Siber
357
##azed
PTB
##ulent
skull
Microp
deallo
scarcely
Barn
rainwater
364
wetness
ECG
NaAl
k→
##bulk
Li4Ti5O12
marking
chondrites
[...]
